{
  "version": "1.0",
  "truncation": null,
  "padding": null,
  "added_tokens": [
    {
      "id": 0,
      "content": "<|endoftext|>",
      "single_word": false,
      "lstrip": false,
      "rstrip": false,
      "normalized": false,
      "special": true
    },
    {
      "id": 1,
      "content": "<|pad|>",
      "single_word": false,
      "lstrip": false,
      "rstrip": false,
      "normalized": false,
      "special": true
    }
  ],
  "normalizer": null,
  "pre_tokenizer": {
    "type": "ByteLevel",
    "add_prefix_space": false,
    "trim_offsets": true,
    "use_regex": true
  },
  "post_processor": {
    "type": "ByteLevel",
    "add_prefix_space": true,
    "trim_offsets": false,
    "use_regex": true
  },
  "decoder": {
    "type": "ByteLevel",
    "add_prefix_space": true,
    "trim_offsets": true,
    "use_regex": true
  },
  "model": {
    "type": "BPE",
    "dropout": null,
    "unk_token": null,
    "continuing_subword_prefix": null,
    "end_of_word_suffix": null,
    "fuse_unk": false,
    "byte_fallback": false,
    "ignore_merges": false,
    "vocab": {
      "<|endoftext|>": 0,
      "<|pad|>": 1,
      "!": 2,
      "\"": 3,
      "#": 4,
      "$": 5,
      "%": 6,
      "&": 7,
      "'": 8,
      "(": 9,
      ")": 10,
      "*": 11,
      "+": 12,
      ",": 13,
      "-": 14,
      ".": 15,
      "/": 16,
      "0": 17,
      "1": 18,
      "2": 19,
      "3": 20,
      "4": 21,
      "5": 22,
      "6": 23,
      "7": 24,
      "8": 25,
      "9": 26,
      ":": 27,
      ";": 28,
      "<": 29,
      "=": 30,
      ">": 31,
      "?": 32,
      "@": 33,
      "A": 34,
      "B": 35,
      "C": 36,
      "D": 37,
      "E": 38,
      "F": 39,
      "G": 40,
      "H": 41,
      "I": 42,
      "J": 43,
      "K": 44,
      "L": 45,
      "M": 46,
      "N": 47,
      "O": 48,
      "P": 49,
      "Q": 50,
      "R": 51,
      "S": 52,
      "T": 53,
      "U": 54,
      "V": 55,
      "W": 56,
      "X": 57,
      "Y": 58,
      "Z": 59,
      "[": 60,
      "\\": 61,
      "]": 62,
      "^": 63,
      "_": 64,
      "`": 65,
      "a": 66,
      "b": 67,
      "c": 68,
      "d": 69,
      "e": 70,
      "f": 71,
      "g": 72,
      "h": 73,
      "i": 74,
      "j": 75,
      "k": 76,
      "l": 77,
      "m": 78,
      "n": 79,
      "o": 80,
      "p": 81,
      "q": 82,
      "r": 83,
      "s": 84,
      "t": 85,
      "u": 86,
      "v": 87,
      "w": 88,
      "x": 89,
      "y": 90,
      "z": 91,
      "{": 92,
      "|": 93,
      "}": 94,
      "~": 95,
      "¡": 96,
      "¢": 97,
      "£": 98,
      "¤": 99,
      "¥": 100,
      "¦": 101,
      "§": 102,
      "¨": 103,
      "©": 104,
      "ª": 105,
      "«": 106,
      "¬": 107,
      "®": 108,
      "¯": 109,
      "°": 110,
      "±": 111,
      "²": 112,
      "³": 113,
      "´": 114,
      "µ": 115,
      "¶": 116,
      "·": 117,
      "¸": 118,
      "¹": 119,
      "º": 120,
      "»": 121,
      "¼": 122,
      "½": 123,
      "¾": 124,
      "¿": 125,
      "À": 126,
      "Á": 127,
      "Â": 128,
      "Ã": 129,
      "Ä": 130,
      "Å": 131,
      "Æ": 132,
      "Ç": 133,
      "È": 134,
      "É": 135,
      "Ê": 136,
      "Ë": 137,
      "Ì": 138,
      "Í": 139,
      "Î": 140,
      "Ï": 141,
      "Ð": 142,
      "Ñ": 143,
      "Ò": 144,
      "Ó": 145,
      "Ô": 146,
      "Õ": 147,
      "Ö": 148,
      "×": 149,
      "Ø": 150,
      "Ù": 151,
      "Ú": 152,
      "Û": 153,
      "Ü": 154,
      "Ý": 155,
      "Þ": 156,
      "ß": 157,
      "à": 158,
      "á": 159,
      "â": 160,
      "ã": 161,
      "ä": 162,
      "å": 163,
      "æ": 164,
      "ç": 165,
      "è": 166,
      "é": 167,
      "ê": 168,
      "ë": 169,
      "ì": 170,
      "í": 171,
      "î": 172,
      "ï": 173,
      "ð": 174,
      "ñ": 175,
      "ò": 176,
      "ó": 177,
      "ô": 178,
      "õ": 179,
      "ö": 180,
      "÷": 181,
      "ø": 182,
      "ù": 183,
      "ú": 184,
      "û": 185,
      "ü": 186,
      "ý": 187,
      "þ": 188,
      "ÿ": 189,
      "Ā": 190,
      "ā": 191,
      "Ă": 192,
      "ă": 193,
      "Ą": 194,
      "ą": 195,
      "Ć": 196,
      "ć": 197,
      "Ĉ": 198,
      "ĉ": 199,
      "Ċ": 200,
      "ċ": 201,
      "Č": 202,
      "č": 203,
      "Ď": 204,
      "ď": 205,
      "Đ": 206,
      "đ": 207,
      "Ē": 208,
      "ē": 209,
      "Ĕ": 210,
      "ĕ": 211,
      "Ė": 212,
      "ė": 213,
      "Ę": 214,
      "ę": 215,
      "Ě": 216,
      "ě": 217,
      "Ĝ": 218,
      "ĝ": 219,
      "Ğ": 220,
      "ğ": 221,
      "Ġ": 222,
      "ġ": 223,
      "Ģ": 224,
      "ģ": 225,
      "Ĥ": 226,
      "ĥ": 227,
      "Ħ": 228,
      "ħ": 229,
      "Ĩ": 230,
      "ĩ": 231,
      "Ī": 232,
      "ī": 233,
      "Ĭ": 234,
      "ĭ": 235,
      "Į": 236,
      "į": 237,
      "İ": 238,
      "ı": 239,
      "Ĳ": 240,
      "ĳ": 241,
      "Ĵ": 242,
      "ĵ": 243,
      "Ķ": 244,
      "ķ": 245,
      "ĸ": 246,
      "Ĺ": 247,
      "ĺ": 248,
      "Ļ": 249,
      "ļ": 250,
      "Ľ": 251,
      "ľ": 252,
      "Ŀ": 253,
      "ŀ": 254,
      "Ł": 255,
      "ł": 256,
      "Ń": 257,
      "Ġt": 258,
      "he": 259,
      "Ġa": 260,
      "in": 261,
      "Ġthe": 262,
      "er": 263,
      "on": 264,
      "re": 265,
      "Ġs": 266,
      "Ġw": 267,
      "Ġo": 268,
      "ed": 269,
      "at": 270,
      "nd": 271,
      "Ġ,": 272,
      "en": 273,
      "or": 274,
      "Ġc": 275,
      "it": 276,
      "is": 277,
      "Ġf": 278,
      "es": 279,
      "Ġb": 280,
      "ar": 281,
      "an": 282,
      "Ġof": 283,
      "al": 284,
      "Ġ.": 285,
      "Ġin": 286,
      "ing": 287,
      "Ġp": 288,
      "as": 289,
      "Ġand": 290,
      "Ġto": 291,
      "ou": 292,
      "Ġm": 293,
      "ic": 294,
      "Ġd": 295,
      "Ġh": 296,
      "ion": 297,
      "le": 298,
      "ro": 299,
      "ĠT": 300,
      "Ġth": 301,
      "Ġre": 302,
      "il": 303,
      "ent": 304,
      "ĠS": 305,
      "st": 306,
      "ĠA": 307,
      "Ġl": 308,
      "el": 309,
      "om": 310,
      "Ġn": 311,
      "Ġe": 312,
      "ĠC": 313,
      "Ġ=": 314,
      "Ġ1": 315,
      "am": 316,
      "ac": 317,
      "Ġ\"": 318,
      "ad": 319,
      "Ġbe": 320,
      "Ġon": 321,
      "Ġg": 322,
      "id": 323,
      "ly": 324,
      "ĠM": 325,
      "Ġwas": 326,
      "ĠI": 327,
      "ur": 328,
      "ot": 329,
      "im": 330,
      "ol": 331,
      "ĠB": 332,
      "Ġ@": 333,
      "Ġfor": 334,
      "ut": 335,
      "ig": 336,
      "ĠĊ": 337,
      "ve": 338,
      "ter": 339,
      "ver": 340,
      "ct": 341,
      "ĠThe": 342,
      "ir": 343,
      "ay": 344,
      "ow": 345,
      "et": 346,
      "us": 347,
      "Ġthat": 348,
      "Ġas": 349,
      "Ġst": 350,
      "ith": 351,
      "âĢ": 352,
      "ĠH": 353,
      "Ġhe": 354,
      "Ġ'": 355,
      "ation": 356,
      "ce": 357,
      "ĠP": 358,
      "Ġwith": 359,
      "Ġis": 360,
      "Ġ2": 361,
      "Ġ@-": 362,
      "Ġ@-@": 363,
      "ch": 364,
      "Ġwh": 365,
      "un": 366,
      "ĠR": 367,
      "ĠD": 368,
      "Ġal": 369,
      "ĠW": 370,
      "Ġit": 371,
      "ul": 372,
      "Ġcon": 373,
      "ĠF": 374,
      "Ġan": 375,
      "Ġat": 376,
      "Ġby": 377,
      "Ġ(": 378,
      "th": 379,
      "os": 380,
      "ri": 381,
      "em": 382,
      "ra": 383,
      "ĠG": 384,
      "ĠL": 385,
      "ĠN": 386,
      "ers": 387,
      "her": 388,
      "est": 389,
      "um": 390,
      "rom": 391,
      "and": 392,
      "Ġse": 393,
      "Ġde": 394,
      "ag": 395,
      "ist": 396,
      "ĠJ": 397,
      "00": 398,
      "ain": 399,
      "ĠE": 400,
      "ill": 401,
      "Ġ)": 402,
      "od": 403,
      "pe": 404,
      "ld": 405,
      "Ġ19": 406,
      "Ġcom": 407,
      "Ġr": 408,
      "Ġfrom": 409,
      "Ġpro": 410,
      "if": 411,
      "ore": 412,
      "Ġhis": 413,
      "ĠO": 414,
      "op": 415,
      "igh": 416,
      "ew": 417,
      "Ġv": 418,
      "Ġy": 419,
      "res": 420,
      "ak": 421,
      "ate": 422,
      "Ġsu": 423,
      "ort": 424,
      "art": 425,
      "iv": 426,
      "ies": 427,
      "se": 428,
      "ĠâĢ": 429,
      "Ġex": 430,
      "ant": 431,
      "ard": 432,
      "ere": 433,
      "ab": 434,
      "all": 435,
      "oc": 436,
      "Ġor": 437,
      "qu": 438,
      "ity": 439,
      "ess": 440,
      "ich": 441,
      "pp": 442,
      "ber": 443,
      "Ġch": 444,
      "Ġsh": 445,
      "ĠIn": 446,
      "ud": 447,
      "Ġare": 448,
      "Ġwere": 449,
      "ment": 450,
      "gh": 451,
      "Ġpl": 452,
      "our": 453,
      "ong": 454,
      "ive": 455,
      "pt": 456,
      "ack": 457,
      "ĠU": 458,
      "ĠK": 459,
      "Ġnot": 460,
      "Ġk": 461,
      "Ġle": 462,
      "ame": 463,
      "ated": 464,
      "Ġha": 465,
      "rou": 466,
      "ast": 467,
      "ge": 468,
      "Ġhad": 469,
      "ight": 470,
      "ear": 471,
      "ally": 472,
      "ust": 473,
      "red": 474,
      "Ġu": 475,
      "ost": 476,
      "out": 477,
      "ĠSt": 478,
      "ell": 479,
      "Ġwhich": 480,
      "ould": 481,
      "ip": 482,
      "ian": 483,
      "oun": 484,
      "ia": 485,
      "ine": 486,
      "ord": 487,
      "âĢĻ": 488,
      "ary": 489,
      "Ġbut": 490,
      "Ġun": 491,
      "ther": 492,
      "ap": 493,
      "Ġhave": 494,
      "ial": 495,
      "cl": 496,
      "Ġab": 497,
      "ction": 498,
      "ff": 499,
      "Ġwhe": 500,
      "Ġ3": 501,
      "ous": 502,
      "ie": 503,
      "ome": 504,
      "cc": 505,
      "rit": 506,
      "ok": 507,
      "ide": 508,
      "av": 509,
      "te": 510,
      "ure": 511,
      "ĠCh": 512,
      "Ġcomp": 513,
      "Ġtheir": 514,
      "Ġ20": 515,
      "ru": 516,
      "Ġthis": 517,
      "fter": 518,
      "og": 519,
      "so": 520,
      "Ġus": 521,
      "ork": 522,
      "Ġcont": 523,
      "ry": 524,
      "ĠV": 525,
      "Ġcl": 526,
      "Ġhas": 527,
      "ub": 528,
      "ign": 529,
      "irst": 530,
      "per": 531,
      "Ġad": 532,
      "Ġwe": 533,
      "Ġint": 534,
      "ish": 535,
      "Ġar": 536,
      "Ġwho": 537,
      "Ġj": 538,
      "ass": 539,
      "Ġ200": 540,
      "ime": 541,
      "Ġits": 542,
      "ans": 543,
      "ical": 544,
      "ition": 545,
      "orm": 546,
      "age": 547,
      "ue": 548,
      "Ġher": 549,
      "wo": 550,
      "Ġone": 551,
      "ke": 552,
      "pl": 553,
      "Ġalso": 554,
      "ire": 555,
      "Ġall": 556,
      "mer": 557,
      "Ġfirst": 558,
      "ice": 559,
      "act": 560,
      "Ġgo": 561,
      "ond": 562,
      "Ġres": 563,
      "Ġthey": 564,
      "Ġper": 565,
      "ĠTh": 566,
      "ĠHe": 567,
      "ĠâĢĵ": 568,
      "own": 569,
      "iz": 570,
      "Ġout": 571,
      "du": 572,
      "ence": 573,
      "ater": 574,
      "Ġbeen": 575,
      "Ġag": 576,
      "ile": 577,
      "Ġsc": 578,
      "Ġte": 579,
      "ult": 580,
      "hed": 581,
      "ect": 582,
      "ance": 583,
      "Ġne": 584,
      "Ġen": 585,
      "ound": 586,
      "Ġsa": 587,
      "ough": 588,
      "Ġ4": 589,
      "Ġyear": 590,
      "ely": 591,
      "ree": 592,
      "Ġbec": 593,
      "Ġoff": 594,
      "Ġpart": 595,
      "Ġrec": 596,
      "Ġup": 597,
      "Ġ201": 598,
      "one": 599,
      "are": 600,
      "ace": 601,
      "Ġover": 602,
      "ations": 603,
      "Ġdis": 604,
      "Ġ5": 605,
      "Ġim": 606,
      "ĠIt": 607,
      "Ġtr": 608,
      "Ġwould": 609,
      "Ġtwo": 610,
      "Ġ;": 611,
      "oll": 612,
      "ov": 613,
      "Ġman": 614,
      "ach": 615,
      "ind": 616,
      "Ġ:": 617,
      "Ġother": 618,
      "ory": 619,
      "Ġro": 620,
      "ions": 621,
      "ib": 622,
      "ark": 623,
      "Ġmore": 624,
      "Ġplay": 625,
      "Ġser": 626,
      "ount": 627,
      "ress": 628,
      "Ġafter": 629,
      "uring": 630,
      "ĠAl": 631,
      "ens": 632,
      "ĠY": 633,
      "Ġsp": 634,
      "ade": 635,
      "clud": 636,
      "Ġcan": 637,
      "ric": 638,
      "Ġ18": 639,
      "Ġev": 640,
      "Ġtime": 641,
      "ang": 642,
      "able": 643,
      "Ġdes": 644,
      "ose": 645,
      "nder": 646,
      "Ġinto": 647,
      "wn": 648,
      "ite": 649,
      "Ġme": 650,
      "ĠRe": 651,
      "vel": 652,
      "Ġpre": 653,
      "ne": 654,
      "vers": 655,
      "oin": 656,
      "urn": 657,
      "ake": 658,
      "ase": 659,
      ".@": 660,
      "Ġ@.@": 661,
      "ates": 662,
      "port": 663,
      "Ġhim": 664,
      "Ġabout": 665,
      "ph": 666,
      "ced": 667,
      "Ġshe": 668,
      "Ġwork": 669,
      "Ġyou": 670,
      "ors": 671,
      "ren": 672,
      "Ġinclud": 673,
      "Ġinter": 674,
      "we": 675,
      "land": 676,
      "man": 677,
      "Ġspe": 678,
      "Ġnew": 679,
      "ĠUn": 680,
      "amp": 681,
      "ts": 682,
      "ĠSe": 683,
      "Ġcomm": 684,
      ",@": 685,
      "Ġ@,@": 686,
      "old": 687,
      "Ġdo": 688,
      "ings": 689,
      "ons": 690,
      "ces": 691,
      "Ġwhen": 692,
      "Ġatt": 693,
      "aus": 694,
      "ail": 695,
      "ick": 696,
      "Ġso": 697,
      "ted": 698,
      "ward": 699,
      "form": 700,
      "rough": 701,
      "oy": 702,
      "ove": 703,
      "ased": 704,
      "Ġthan": 705,
      "Ġsaid": 706,
      "ited": 707,
      "ild": 708,
      "Ġthem": 709,
      "Ġ6": 710,
      "ied": 711,
      "fer": 712,
      "ook": 713,
      "reat": 714,
      "les": 715,
      "Ġbet": 716,
      "ious": 717,
      "Ġli": 718,
      "Ġfe": 719,
      "Ġpe": 720,
      "way": 721,
      "ents": 722,
      "ob": 723,
      "very": 724,
      "ck": 725,
      "ĠDe": 726,
      "Ġsec": 727,
      "ubl": 728,
      "ved": 729,
      "Ġkn": 730,
      "ft": 731,
      "Ġqu": 732,
      "iss": 733,
      "Ġco": 734,
      "round": 735,
      "ilm": 736,
      "Ġonly": 737,
      "âĢĿ": 738,
      "Ġ7": 739,
      "Ġmost": 740,
      "ĠAn": 741,
      "Ġagain": 742,
      "rib": 743,
      "Ġrem": 744,
      "Ġsome": 745,
      "inal": 746,
      "ason": 747,
      "Ġwill": 748,
      "Ġthere": 749,
      "Ġcons": 750,
      "aw": 751,
      "'s": 752,
      "oth": 753,
      "fore": 754,
      "gan": 755,
      "Ġfl": 756,
      "Ġunder": 757,
      "ath": 758,
      "ational": 759,
      "Ġacc": 760,
      "ered": 761,
      "ĠMar": 762,
      "ix": 763,
      "att": 764,
      "ters": 765,
      "Ġ8": 766,
      "ĠAs": 767,
      "Ġapp": 768,
      "ood": 769,
      "ĠAr": 770,
      "ton": 771,
      "Ġgame": 772,
      "Ġduring": 773,
      "orld": 774,
      "ween": 775,
      "Ġfilm": 776,
      "ict": 777,
      "Ġpr": 778,
      "ĠNew": 779,
      "Ġear": 780,
      "orth": 781,
      "ollow": 782,
      "hip": 783,
      "ual": 784,
      "Ġ9": 785,
      "ock": 786,
      "Ġact": 787,
      "iew": 788,
      "tern": 789,
      "Ġthrough": 790,
      "ank": 791,
      "ning": 792,
      "Ġchar": 793,
      "Ġrel": 794,
      "Ġprodu": 795,
      "meric": 796,
      "ron": 797,
      "ug": 798,
      "Ġret": 799,
      "ĠOn": 800,
      "ident": 801,
      "Ġbetween": 802,
      "Ġwhere": 803,
      "Ġpos": 804,
      "Ġam": 805,
      "Ġend": 806,
      "Ġinc": 807,
      "ating": 808,
      "ĠAmeric": 809,
      "Ġra": 810,
      "Ġday": 811,
      "Ġcent": 812,
      "The": 813,
      "Ġreg": 814,
      "Ġthree": 815,
      "ll": 816,
      "Ġbu": 817,
      "Ġass": 818,
      "Ġ199": 819,
      "Ġwhile": 820,
      "Ġrele": 821,
      "Ġnum": 822,
      "ĠLe": 823,
      "Ġbl": 824,
      "ause": 825,
      "ople": 826,
      "Ġyears": 827,
      "ular": 828,
      "ĠâĢľ": 829,
      "000": 830,
      "Ġdef": 831,
      "Ġmade": 832,
      "Ġsub": 833,
      "Ġno": 834,
      "ars": 835,
      "ener": 836,
      "Ġap": 837,
      "cted": 838,
      "Ġind": 839,
      "ĠEn": 840,
      "Ġlater": 841,
      "Ġany": 842,
      "ific": 843,
      "als": 844,
      "end": 845,
      "Ġbefore": 846,
      "Ġsuch": 847,
      "Ġsupp": 848,
      "ames": 849,
      "Ġsy": 850,
      "ever": 851,
      "hes": 852,
      "hen": 853,
      "Ġele": 854,
      "outh": 855,
      "Ġcall": 856,
      "Ġinv": 857,
      "ral": 858,
      "Ġsong": 859,
      "ics": 860,
      "Ġpol": 861,
      "Ġtra": 862,
      "Ġback": 863,
      "ĠThis": 864,
      "Ġbeing": 865,
      "Ġteam": 866,
      "io": 867,
      "ĠCom": 868,
      "ep": 869,
      "ision": 870,
      "ĠâĢĶ": 871,
      "Ġac": 872,
      "Ġthen": 873,
      "ros": 874,
      "Ġadd": 875,
      "oh": 876,
      "Ġsecond": 877,
      "Ġpubl": 878,
      "Ġcould": 879,
      "ily": 880,
      "Ġfollow": 881,
      "Ġpeople": 882,
      "son": 883,
      "Ġdec": 884,
      "Ġpres": 885,
      "ool": 886,
      "ek": 887,
      "Ġlike": 888,
      "Ġdid": 889,
      "ower": 890,
      "Ġent": 891,
      "Ġ10": 892,
      "Ġsur": 893,
      "Ġform": 894,
      "Ġseason": 895,
      "other": 896,
      "Ġfour": 897,
      "vern": 898,
      "iel": 899,
      "Ġspec": 900,
      "Ġshow": 901,
      "Ġrecord": 902,
      "Ġhigh": 903,
      "ting": 904,
      "ĠSh": 905,
      "ife": 906,
      "ris": 907,
      "ince": 908,
      "Ġlar": 909,
      "Ġcol": 910,
      "uch": 911,
      "Ġagainst": 912,
      "ode": 913,
      "ven": 914,
      "ished": 915,
      "Ġused": 916,
      "ink": 917,
      "Ġwrit": 918,
      "elf": 919,
      "orn": 920,
      "anc": 921,
      "Ġmon": 922,
      "ten": 923,
      "Ġhow": 924,
      "Ġwell": 925,
      "Ġlead": 926,
      "Ġem": 927,
      "ject": 928,
      "velop": 929,
      "Ġset": 930,
      "mber": 931,
      "ĠWh": 932,
      "ember": 933,
      "aj": 934,
      "Ġjust": 935,
      "ful": 936,
      "Ġep": 937,
      "Ġwhat": 938,
      "ram": 939,
      "ĠAt": 940,
      "ities": 941,
      "Ġappe": 942,
      "ier": 943,
      "Ġmin": 944,
      "Ġmus": 945,
      "Ġimp": 946,
      "au": 947,
      "ather": 948,
      "bum": 949,
      "ale": 950,
      "Ġmany": 951,
      "Ġ0": 952,
      "Ġloc": 953,
      "Ġlong": 954,
      "Ġfound": 955,
      "its": 956,
      "Ġdif": 957,
      "olog": 958,
      "cept": 959,
      "Ġboth": 960,
      "ained": 961,
      "Ġif": 962,
      "ins": 963,
      "ury": 964,
      "Ġnumber": 965,
      "ty": 966,
      "ash": 967,
      "Ġ/": 968,
      "led": 969,
      "roup": 970,
      "ures": 971,
      "ĠBe": 972,
      "row": 973,
      "Ġop": 974,
      "ines": 975,
      "air": 976,
      "ving": 977,
      "ane": 978,
      "aking": 979,
      "illion": 980,
      "Ġ000": 981,
      "Ġstud": 982,
      "up": 983,
      "ative": 984,
      "ise": 985,
      "der": 986,
      "ert": 987,
      "Ġincluding": 988,
      "ments": 989,
      "Ġsever": 990,
      "Ġ$": 991,
      "ived": 992,
      "ually": 993,
      "iet": 994,
      "Ġalbum": 995,
      "any": 996,
      "Ġbecause": 997,
      "Ġcre": 998,
      "ah": 999,
      "ange": 1000,
      "Ġcharac": 1001,
      "Ġsm": 1002,
      "ĠUnited": 1003,
      "Ġthese": 1004,
      "Ġdevelop": 1005,
      "Ġinst": 1006,
      "ys": 1007,
      "Ġown": 1008,
      "ired": 1009,
      "erson": 1010,
      "ared": 1011,
      "az": 1012,
      "ouse": 1013,
      "ĠSc": 1014,
      "Ġdown": 1015,
      "Ġepis": 1016,
      "Ġbel": 1017,
      "Ġ17": 1018,
      "ism": 1019,
      "ĠCl": 1020,
      "Ġmay": 1021,
      "Ġperform": 1022,
      "Ġsing": 1023,
      "ĠCon": 1024,
      "xt": 1025,
      "Ġwar": 1026,
      "Ġcar": 1027,
      "Ġob": 1028,
      "Ġ12": 1029,
      "ave": 1030,
      "rop": 1031,
      "Ġ15": 1032,
      "ĠShe": 1033,
      "Ġter": 1034,
      "Ġdire": 1035,
      "oot": 1036,
      "Ġsay": 1037,
      "Ġcontin": 1038,
      "Ġph": 1039,
      "Ġmain": 1040,
      "Ġsign": 1041,
      "Ġmat": 1042,
      "ĠBrit": 1043,
      "ann": 1044,
      "ĠAfter": 1045,
      "Ġeff": 1046,
      "imes": 1047,
      "Ġrep": 1048,
      "stem": 1049,
      "ĠJoh": 1050,
      "ists": 1051,
      "ross": 1052,
      "Ġprov": 1053,
      "Ġbecame": 1054,
      "Ġbr": 1055,
      "Ġcount": 1056,
      "Ġexp": 1057,
      "Ġtrans": 1058,
      "und": 1059,
      "ober": 1060,
      "Ġseries": 1061,
      "Ġgovern": 1062,
      "ised": 1063,
      "ird": 1064,
      "emb": 1065,
      "ĠSp": 1066,
      "Ġbro": 1067,
      "ley": 1068,
      "Ġrun": 1069,
      "Ġget": 1070,
      "chool": 1071,
      "ield": 1072,
      "ution": 1073,
      "Ġoffic": 1074,
      "tend": 1075,
      "view": 1076,
      "Ġ198": 1077,
      "Ġrece": 1078,
      "apt": 1079,
      "ible": 1080,
      "Ġuse": 1081,
      "Ġmy": 1082,
      "ĠJohn": 1083,
      "ĠAmerican": 1084,
      "Ġsl": 1085,
      "get": 1086,
      "ĠInd": 1087,
      "Ġpop": 1088,
      "ized": 1089,
      "ern": 1090,
      "eth": 1091,
      "Ġpoin": 1092,
      "Ġair": 1093,
      "ivers": 1094,
      "ax": 1095,
      "ues": 1096,
      "Ġsim": 1097,
      "ull": 1098,
      "Ġcomple": 1099,
      "Ġstart": 1100,
      "Ġart": 1101,
      "Ġgroup": 1102,
      "ĠEng": 1103,
      "Ġdisc": 1104,
      "ĠZ": 1105,
      "ĠUS": 1106,
      "Ġgu": 1107,
      "Ġfin": 1108,
      "ĠFr": 1109,
      "til": 1110,
      "Ġinf": 1111,
      "ially": 1112,
      "ĠBl": 1113,
      "Ġgener": 1114,
      "Ġdist": 1115,
      "Ġseveral": 1116,
      "Ġknown": 1117,
      "Ġreport": 1118,
      "Ġ[": 1119,
      "Ġfam": 1120,
      "though": 1121,
      "Ġcalled": 1122,
      "Ġsame": 1123,
      "ued": 1124,
      "Ġpass": 1125,
      "Ġdesign": 1126,
      "Ġ16": 1127,
      "Ġorig": 1128,
      "ility": 1129,
      "gg": 1130,
      "ble": 1131,
      "Ġins": 1132,
      "Ġway": 1133,
      "Ġed": 1134,
      "Ġreturn": 1135,
      "ĠHow": 1136,
      "Ġ11": 1137,
      "Ġthough": 1138,
      "ĠIs": 1139,
      "Ġnow": 1140,
      "ided": 1141,
      "Ġmod": 1142,
      "Ġnear": 1143,
      "ccess": 1144,
      "iver": 1145,
      "ement": 1146,
      "ĠWe": 1147,
      "ger": 1148,
      "Ġ194": 1149,
      "Ġmillion": 1150,
      "ĠGer": 1151,
      "osed": 1152,
      "Ġest": 1153,
      "Ġlast": 1154,
      "pect": 1155,
      "Ġaround": 1156,
      "cess": 1157,
      "Ġeven": 1158,
      "ĠMay": 1159,
      "Ġsystem": 1160,
      "Ġmov": 1161,
      "Ġdesc": 1162,
      "Ġepisode": 1163,
      "uss": 1164,
      "Ġuntil": 1165,
      "Ġfeat": 1166,
      "Ġopen": 1167,
      "ured": 1168,
      "ĠAust": 1169,
      "my": 1170,
      "ĠWar": 1171,
      "vent": 1172,
      "ik": 1173,
      "Ġship": 1174,
      "Ġmake": 1175,
      "Ġsupport": 1176,
      "Ġworld": 1177,
      "ants": 1178,
      "Ġmuch": 1179,
      "ajor": 1180,
      "iam": 1181,
      "Ġmil": 1182,
      "une": 1183,
      "Ġearly": 1184,
      "Ġdep": 1185,
      "Ġbegan": 1186,
      "Ġhel": 1187,
      "Ġ197": 1188,
      "ene": 1189,
      "ner": 1190,
      "Ġke": 1191,
      "Ġ196": 1192,
      "..": 1193,
      "Ġaut": 1194,
      "ĠFor": 1195,
      "Ġright": 1196,
      "Ġcrit": 1197,
      "Ġreleased": 1198,
      "els": 1199,
      "Ġstr": 1200,
      "ĠTr": 1201,
      "Ġstate": 1202,
      "Ġhist": 1203,
      "ium": 1204,
      "Ġweek": 1205,
      "Ġresult": 1206,
      "ves": 1207,
      "Ġmusic": 1208,
      "enn": 1209,
      "Ġalong": 1210,
      "ĠAd": 1211,
      "ĠAnd": 1212,
      "Ġattack": 1213,
      "tle": 1214,
      "ĠThey": 1215,
      "Ġpublic": 1216,
      "uc": 1217,
      "Ġdiffer": 1218,
      "Ġhead": 1219,
      "Ġvery": 1220,
      "ives": 1221,
      "ĠTe": 1222,
      "Ġconf": 1223,
      "Ġext": 1224,
      "min": 1225,
      "Ġmed": 1226,
      "ĠCol": 1227,
      "ret": 1228,
      "Ġgr": 1229,
      "Ġ13": 1230,
      "Ġconst": 1231,
      "Ġwin": 1232,
      "Ġoper": 1233,
      "Ġyour": 1234,
      "Ġthose": 1235,
      "ĠAp": 1236,
      "Ġeach": 1237,
      "Ġsuccess": 1238,
      "ĠStates": 1239,
      "Ġann": 1240,
      "ĠQ": 1241,
      "Ġlife": 1242,
      "ged": 1243,
      "Ġland": 1244,
      "med": 1245,
      "Ġbo": 1246,
      "ording": 1247,
      "Ġgovernment": 1248,
      "ĠAll": 1249,
      "ĠBr": 1250,
      "Ġsince": 1251,
      "Ġprom": 1252,
      "Ġbuild": 1253,
      "ĠPl": 1254,
      "ina": 1255,
      "Ġevery": 1256,
      "ient": 1257,
      "Ġtook": 1258,
      "ately": 1259,
      "Ġcontro": 1260,
      "Ġconsid": 1261,
      "ctor": 1262,
      "alk": 1263,
      "wards": 1264,
      "ĠMe": 1265,
      "Ġclass": 1266,
      "ĠBritish": 1267,
      "Ġpartic": 1268,
      "ets": 1269,
      "ĠPro": 1270,
      "Ã©": 1271,
      "amed": 1272,
      "Ġocc": 1273,
      "oss": 1274,
      "ĠAug": 1275,
      "Ġmonth": 1276,
      "Ġmet": 1277,
      "Ġref": 1278,
      "ms": 1279,
      "eb": 1280,
      "Ġsmall": 1281,
      "Ġdescrib": 1282,
      "aced": 1283,
      "Ġneed": 1284,
      "ĠSept": 1285,
      "Ġ14": 1286,
      "ĠWorld": 1287,
      "ute": 1288,
      "Ġallow": 1289,
      "Ġperson": 1290,
      "ctions": 1291,
      "ians": 1292,
      "Ġcharacter": 1293,
      "Ġour": 1294,
      "Ġturn": 1295,
      "Ġcity": 1296,
      "ically": 1297,
      "Ġhelp": 1298,
      "ract": 1299,
      "Ġrest": 1300,
      "Ġvar": 1301,
      "cy": 1302,
      "Ġstill": 1303,
      "ĠJu": 1304,
      "Ġwant": 1305,
      "ience": 1306,
      "ĠSeptember": 1307,
      "Ġconc": 1308,
      "ĠAugust": 1309,
      "Ġfollowing": 1310,
      "Ġanother": 1311,
      "erv": 1312,
      "Ġmar": 1313,
      "Ġexpl": 1314,
      "aim": 1315,
      "day": 1316,
      "ĠCar": 1317,
      "Ġlit": 1318,
      "Ġtri": 1319,
      "gin": 1320,
      "Ġmajor": 1321,
      "Ġsix": 1322,
      "ĠYork": 1323,
      "ĠGerman": 1324,
      "Ġcare": 1325,
      "ĠPh": 1326,
      "Ġcour": 1327,
      "Ġfive": 1328,
      "attle": 1329,
      "ission": 1330,
      "Ġprog": 1331,
      "Ġcamp": 1332,
      "Ġfinal": 1333,
      "ages": 1334,
      "ĠHowever": 1335,
      "uro": 1336,
      "ĠOct": 1337,
      "con": 1338,
      "Ġhand": 1339,
      "Ġpower": 1340,
      "ional": 1341,
      "Ġ]": 1342,
      "ĠCan": 1343,
      "ains": 1344,
      "vious": 1345,
      "Ġ-": 1346,
      "Ġincre": 1347,
      "ĠAustral": 1348,
      "Ġadv": 1349,
      "Ġarea": 1350,
      "Ġpo": 1351,
      "Ġschool": 1352,
      "Ġrequ": 1353,
      "Ġresp": 1354,
      "Ġsom": 1355,
      "ural": 1356,
      "Ġchild": 1357,
      "Ġplace": 1358,
      "Ġleft": 1359,
      "ody": 1360,
      "ively": 1361,
      "ĠNorth": 1362,
      "Ġiss": 1363,
      "ats": 1364,
      "ling": 1365,
      "Ġreceived": 1366,
      "ĠComm": 1367,
      "ital": 1368,
      "raph": 1369,
      "hern": 1370,
      "read": 1371,
      "Ġopp": 1372,
      "Ġbook": 1373,
      "Ġbelie": 1374,
      "ĠMc": 1375,
      "ored": 1376,
      "Ġreal": 1377,
      "Ġ195": 1378,
      "Ġexper": 1379,
      "ĠOctober": 1380,
      "Ġlaw": 1381,
      "Ġserv": 1382,
      "Ġleg": 1383,
      "Ġcur": 1384,
      "ril": 1385,
      "Ġhome": 1386,
      "urch": 1387,
      "Ġshould": 1388,
      "ĠJan": 1389,
      "Ġappro": 1390,
      "Ġbest": 1391,
      "Ġdem": 1392,
      "ified": 1393,
      "akes": 1394,
      "ently": 1395,
      "ined": 1396,
      "Ġline": 1397,
      "Ġposs": 1398,
      "ple": 1399,
      "ĠHar": 1400,
      "raft": 1401,
      "Ġtake": 1402,
      "Ġlook": 1403,
      "Ġpolit": 1404,
      "rist": 1405,
      "ness": 1406,
      "Ġwom": 1407,
      "ĠOr": 1408,
      "Ġknow": 1409,
      "Ġgreat": 1410,
      "ĠJune": 1411,
      "Ġlarge": 1412,
      "Ġ193": 1413,
      "Ġ30": 1414,
      "iversity": 1415,
      "orp": 1416,
      "ĠBy": 1417,
      "Ġnext": 1418,
      "Ġnorth": 1419,
      "Ġsingle": 1420,
      "ense": 1421,
      "ec": 1422,
      "Ġvers": 1423,
      "ĠJuly": 1424,
      "over": 1425,
      "lish": 1426,
      "ĠWill": 1427,
      "Ġmark": 1428,
      "Ġstory": 1429,
      "empt": 1430,
      "Ġold": 1431,
      "ĠEd": 1432,
      "alf": 1433,
      "ague": 1434,
      "Ġkm": 1435,
      "Ġgiv": 1436,
      "Ġkill": 1437,
      "Ġvis": 1438,
      "Ġfew": 1439,
      "Ġcolle": 1440,
      "ĠGe": 1441,
      "hest": 1442,
      "Ġwon": 1443,
      "Ġgood": 1444,
      "ball": 1445,
      "Ġtop": 1446,
      "by": 1447,
      "Ġevent": 1448,
      "Ġpri": 1449,
      "Ġsee": 1450,
      "pend": 1451,
      "Ġband": 1452,
      "ovember": 1453,
      "ĠApril": 1454,
      "ister": 1455,
      "uary": 1456,
      "Ġty": 1457,
      "Ġcentury": 1458,
      "Ġshort": 1459,
      "Ġname": 1460,
      "ĠMarch": 1461,
      "Ġbre": 1462,
      "ĠNovember": 1463,
      "ilt": 1464,
      "ney": 1465,
      "reen": 1466,
      "ideo": 1467,
      ".âĢĿ": 1468,
      "ales": 1469,
      "inc": 1470,
      "riend": 1471,
      "Ġcr": 1472,
      "Ġmen": 1473,
      "Ġ25": 1474,
      "rand": 1475,
      "rote": 1476,
      "ĠWhen": 1477,
      "Ġthird": 1478,
      "ĠKing": 1479,
      "ott": 1480,
      "ony": 1481,
      "ĠSouth": 1482,
      "Ġbased": 1483,
      "Ġfact": 1484,
      "Ġfamily": 1485,
      "ike": 1486,
      "ides": 1487,
      "Ġeffect": 1488,
      "Ġdeath": 1489,
      "com": 1490,
      "oad": 1491,
      "ĠThere": 1492,
      "Ġ191": 1493,
      "embers": 1494,
      "Ġorgan": 1495,
      "Ġeng": 1496,
      "ĠEuro": 1497,
      "ior": 1498,
      "sh": 1499,
      "Ġcap": 1500,
      "Ġstru": 1501,
      "Ġdoes": 1502,
      "ump": 1503,
      "Ġav": 1504,
      "Ġdue": 1505,
      "eng": 1506,
      "Ġstand": 1507,
      "Ġpost": 1508,
      "ices": 1509,
      "ilar": 1510,
      "ĠPe": 1511,
      "ĠPr": 1512,
      "Ġposition": 1513,
      "ox": 1514,
      "Ġwrote": 1515,
      "Ġlist": 1516,
      "ĠFl": 1517,
      "hor": 1518,
      "Ġgames": 1519,
      "Ġhum": 1520,
      "Ġes": 1521,
      "Ġplayed": 1522,
      "idge": 1523,
      "Ġdifferent": 1524,
      "self": 1525,
      "arch": 1526,
      "Ġview": 1527,
      "ĠJanuary": 1528,
      "avy": 1529,
      "Ġport": 1530,
      "cember": 1531,
      "Ġstat": 1532,
      "Ġprevious": 1533,
      "Ġincluded": 1534,
      "ĠBro": 1535,
      "urther": 1536,
      "ĠDecember": 1537,
      "Ġ%": 1538,
      "Ġdeb": 1539,
      "Ġcommun": 1540,
      "Ġtrack": 1541,
      "apan": 1542,
      "ences": 1543,
      "Ġsoc": 1544,
      "Ġtit": 1545,
      "ards": 1546,
      "Ġfind": 1547,
      "Ġgun": 1548,
      "gy": 1549,
      "Ġmembers": 1550,
      "aken": 1551,
      "ont": 1552,
      "Ġcame": 1553,
      "Ġformer": 1554,
      "Ġthink": 1555,
      "augh": 1556,
      "Ġpar": 1557,
      "ature": 1558,
      "ĠEurope": 1559,
      "rent": 1560,
      "ĠGu": 1561,
      "ĠBut": 1562,
      "Ġwithin": 1563,
      "Ġlevel": 1564,
      "Ġappear": 1565,
      "ize": 1566,
      "omin": 1567,
      "Ġdays": 1568,
      "ring": 1569,
      "Ġmove": 1570,
      "Ġaddition": 1571,
      "pped": 1572,
      "yl": 1573,
      "Ġbeh": 1574,
      "Ġwithout": 1575,
      "ead": 1576,
      "ĠMus": 1577,
      "atic": 1578,
      "ĠJapan": 1579,
      "Ġread": 1580,
      "ched": 1581,
      "Ġled": 1582,
      "ances": 1583,
      "Ġsk": 1584,
      "Ġreview": 1585,
      "ology": 1586,
      "Ġrepl": 1587,
      "Ġnever": 1588,
      "Ġsouth": 1589,
      "Ġ...": 1590,
      "Ġattempt": 1591,
      "atch": 1592,
      "iod": 1593,
      "ration": 1594,
      "Ġwater": 1595,
      "Ġla": 1596,
      "Ġfar": 1597,
      "ator": 1598,
      "ĠII": 1599,
      "rew": 1600,
      "less": 1601,
      "ĠDuring": 1602,
      "na": 1603,
      "Ġfun": 1604,
      "ĠÂ": 1605,
      "Ġprop": 1606,
      "lear": 1607,
      "ĠChrist": 1608,
      "Ġvideo": 1609,
      "mp": 1610,
      "Ġclaim": 1611,
      "Ġel": 1612,
      "Ġoften": 1613,
      "Ġjoin": 1614,
      "Ġdel": 1615,
      "ached": 1616,
      "oci": 1617,
      "Ġ192": 1618,
      "bs": 1619,
      "Ġdam": 1620,
      "Ġdescribed": 1621,
      ",âĢĿ": 1622,
      "me": 1623,
      "side": 1624,
      "urs": 1625,
      "Ġnamed": 1626,
      "chn": 1627,
      "Ġdon": 1628,
      "Ġimport": 1629,
      "ots": 1630,
      "ĠNational": 1631,
      "Ġequ": 1632,
      "ĠHis": 1633,
      "ĠBar": 1634,
      "alth": 1635,
      "Ġmid": 1636,
      "ĠX": 1637,
      "ĠMan": 1638,
      "itary": 1639,
      "Ġless": 1640,
      "Ġbus": 1641,
      "Ġplan": 1642,
      "let": 1643,
      "ulation": 1644,
      "lu": 1645,
      "Ġcapt": 1646,
      "cent": 1647,
      "iness": 1648,
      "line": 1649,
      "Ġ100": 1650,
      "Ġrelease": 1651,
      "aster": 1652,
      "Ġside": 1653,
      "Ġcountry": 1654,
      "uck": 1655,
      "âĢĶ": 1656,
      "Ġcommand": 1657,
      "Ġpoint": 1658,
      "Ġlocal": 1659,
      "Ġamong": 1660,
      "ĠFeb": 1661,
      "ried": 1662,
      "oon": 1663,
      "Ġpresent": 1664,
      "Ġdest": 1665,
      "Ġlate": 1666,
      "rench": 1667,
      "Ġcaus": 1668,
      "ront": 1669,
      "Ġri": 1670,
      "ering": 1671,
      "Ġhaving": 1672,
      "ases": 1673,
      "Ġheld": 1674,
      "Ġperiod": 1675,
      "ĠWest": 1676,
      "Ġchang": 1677,
      "Ġbecome": 1678,
      "Ġinit": 1679,
      "'t": 1680,
      "Ġhowever": 1681,
      "ĠAm": 1682,
      "Ġgl": 1683,
      "ĠMin": 1684,
      "ruary": 1685,
      "Ġfore": 1686,
      "Ġ21": 1687,
      "ested": 1688,
      "Ġask": 1689,
      "Ġsold": 1690,
      "ably": 1691,
      "ĠFebruary": 1692,
      "Ġrole": 1693,
      "Ġgoing": 1694,
      "Ġdiv": 1695,
      "Ġoriginal": 1696,
      "Ġaff": 1697,
      "Ġsimilar": 1698,
      "Ġide": 1699,
      "Ġprof": 1700,
      "Ġcover": 1701,
      "aged": 1702,
      "tended": 1703,
      "Ġsent": 1704,
      "ĠHer": 1705,
      "ald": 1706,
      "aining": 1707,
      "Ġant": 1708,
      "ĠNo": 1709,
      "Ġprogram": 1710,
      "Ġput": 1711,
      "Ġdet": 1712,
      "Ġ&": 1713,
      "Ġbuilt": 1714,
      "ĠPar": 1715,
      "ery": 1716,
      "reet": 1717,
      "aign": 1718,
      "par": 1719,
      "Ġtoo": 1720,
      "ript": 1721,
      "Ġ2010": 1722,
      "be": 1723,
      "lev": 1724,
      "Ġfre": 1725,
      "Ġdri": 1726,
      "Ġcompany": 1727,
      "Ġalthough": 1728,
      "ĠUniversity": 1729,
      "ograph": 1730,
      "Ġtot": 1731,
      "uted": 1732,
      "elt": 1733,
      "ĠYou": 1734,
      "Ġorder": 1735,
      "ĠCent": 1736,
      "Ġtw": 1737,
      "ention": 1738,
      "aren": 1739,
      "oute": 1740,
      "âĢľ": 1741,
      "ones": 1742,
      "Ġmatch": 1743,
      "ĠOne": 1744,
      "Ġsit": 1745,
      "Ġhalf": 1746,
      "Ġannoun": 1747,
      "ublic": 1748,
      ".\"": 1749,
      "Ġinvol": 1750,
      "Ġpat": 1751,
      "Ġspecies": 1752,
      "Ġusing": 1753,
      "iety": 1754,
      "ploy": 1755,
      "ĠCity": 1756,
      "Ġestab": 1757,
      "Ġdra": 1758,
      "ush": 1759,
      "ĠFrench": 1760,
      "oung": 1761,
      "ĠCo": 1762,
      "Ġwind": 1763,
      "ĠGeor": 1764,
      "Ġ24": 1765,
      "ĠWilliam": 1766,
      "Ġfriend": 1767,
      "ests": 1768,
      "ham": 1769,
      "Ġhistory": 1770,
      "yn": 1771,
      "que": 1772,
      "pite": 1773,
      "ĠMich": 1774,
      "Ġ2011": 1775,
      "Ġsol": 1776,
      "ories": 1777,
      "Ġfurther": 1778,
      "ency": 1779,
      "ask": 1780,
      "Ġsugg": 1781,
      "Ġgiven": 1782,
      "ĠDav": 1783,
      "ata": 1784,
      "ops": 1785,
      "ruction": 1786,
      "Ġcontrol": 1787,
      "rodu": 1788,
      "pec": 1789,
      "Ġplayer": 1790,
      "Ġmaking": 1791,
      "Ġhouse": 1792,
      "Ġwent": 1793,
      "Ġprote": 1794,
      "rest": 1795,
      "Ġtown": 1796,
      "aff": 1797,
      "Ġfoot": 1798,
      "resent": 1799,
      "ai": 1800,
      "estern": 1801,
      "co": 1802,
      "bo": 1803,
      "ĠEl": 1804,
      "Ġ2009": 1805,
      "ining": 1806,
      "ges": 1807,
      "Ġstrong": 1808,
      "Ġpress": 1809,
      "br": 1810,
      "ĠEar": 1811,
      "ĠCanad": 1812,
      "Ġcontinued": 1813,
      "Ġlow": 1814,
      "Ġ2008": 1815,
      "val": 1816,
      "Ġhig": 1817,
      "ĠCal": 1818,
      "Ġeas": 1819,
      "Ġfail": 1820,
      "Ġproject": 1821,
      "ĠChar": 1822,
      "Ġche": 1823,
      "Ġsound": 1824,
      "Ġ22": 1825,
      "conom": 1826,
      "Ġmag": 1827,
      "Ġve": 1828,
      "ĠGo": 1829,
      "ese": 1830,
      "Ġhour": 1831,
      "ington": 1832,
      "Ġofficial": 1833,
      "Ġvot": 1834,
      "mit": 1835,
      "ler": 1836,
      "yle": 1837,
      "ĠRep": 1838,
      "eder": 1839,
      "Ġ2012": 1840,
      "Ġversion": 1841,
      "ison": 1842,
      "Ġlet": 1843,
      "Ġreported": 1844,
      "to": 1845,
      "ille": 1846,
      "Ġconsidered": 1847,
      "ches": 1848,
      "ĠSu": 1849,
      "Ġcampaign": 1850,
      "Ġtimes": 1851,
      "Ġcareer": 1852,
      "acy": 1853,
      "ĠWith": 1854,
      "ĠPark": 1855,
      "ries": 1856,
      "Ġstorm": 1857,
      "ways": 1858,
      "ĠDes": 1859,
      "ument": 1860,
      "Ġtrad": 1861,
      "work": 1862,
      "Ġproduction": 1863,
      "Ġauthor": 1864,
      "ĠAir": 1865,
      "Ġlittle": 1866,
      "iving": 1867,
      "Ġroad": 1868,
      "Ġparticular": 1869,
      "Ġlight": 1870,
      "ream": 1871,
      "Ġaway": 1872,
      "Ġclub": 1873,
      "used": 1874,
      "Ġval": 1875,
      "Ġvict": 1876,
      "Ġtem": 1877,
      "atter": 1878,
      "Ġintern": 1879,
      "ĠEx": 1880,
      "Ġrad": 1881,
      "craft": 1882,
      "Ġrefer": 1883,
      "ĠCount": 1884,
      "ertain": 1885,
      "Ġprocess": 1886,
      "ray": 1887,
      "ĠAng": 1888,
      "Ġcompet": 1889,
      "In": 1890,
      "Ġfire": 1891,
      "ĠNe": 1892,
      "oney": 1893,
      "ĠState": 1894,
      "Ġinvest": 1895,
      "Ġlim": 1896,
      "ĠEnglish": 1897,
      "Ġ23": 1898,
      "ĠPres": 1899,
      "ensive": 1900,
      "Ġtechn": 1901,
      "Ġinflu": 1902,
      "Ġsw": 1903,
      "ief": 1904,
      "ape": 1905,
      "ality": 1906,
      "Ġ2007": 1907,
      "ither": 1908,
      "ford": 1909,
      "ĠEngland": 1910,
      "Ġpolitical": 1911,
      "Ġwomen": 1912,
      "Ġcost": 1913,
      "Ġinform": 1914,
      "ung": 1915,
      "Ġmilitary": 1916,
      "ampions": 1917,
      "Ġdecl": 1918,
      "itions": 1919,
      "ying": 1920,
      "Ġmonths": 1921,
      "ropical": 1922,
      "Ġmoved": 1923,
      "Ġproble": 1924,
      "Ġtotal": 1925,
      "Ġchildren": 1926,
      "Ġcast": 1927,
      "ords": 1928,
      "Ġcomb": 1929,
      "Ġtold": 1930,
      "ondon": 1931,
      "ĠSte": 1932,
      "ĠAcc": 1933,
      "iment": 1934,
      "--": 1935,
      "Ġcommon": 1936,
      "ĠSy": 1937,
      "most": 1938,
      "Ġgave": 1939,
      "Ġable": 1940,
      "ama": 1941,
      "arn": 1942,
      "ĠLondon": 1943,
      "play": 1944,
      "Ġwritten": 1945,
      "Ġnational": 1946,
      "here": 1947,
      "ĠAf": 1948,
      "lect": 1949,
      "omb": 1950,
      "osp": 1951,
      "ĠAb": 1952,
      "irc": 1953,
      "ĠRuss": 1954,
      "fic": 1955,
      "ization": 1956,
      "ĠSec": 1957,
      "Ġlik": 1958,
      "Ġarri": 1959,
      "ĠSm": 1960,
      ",\"": 1961,
      "Ġbuilding": 1962,
      "Ġservice": 1963,
      "ĠWhile": 1964,
      "itive": 1965,
      "Ġdirect": 1966,
      "ĠPol": 1967,
      "Ġlost": 1968,
      "Ġhimself": 1969,
      "Ġinclude": 1970,
      "Ġnight": 1971,
      "Ġseen": 1972,
      "sequ": 1973,
      "Ġdefe": 1974,
      "Ġfull": 1975,
      "Ġlarg": 1976,
      "iting": 1977,
      "ĠAss": 1978,
      "Ġpopular": 1979,
      "Ġ2013": 1980,
      "Ġcase": 1981,
      "utes": 1982,
      "Ġplayers": 1983,
      "Ġacross": 1984,
      "Ġdevelopment": 1985,
      "gr": 1986,
      "ĠAlthough": 1987,
      "Ġpublished": 1988,
      "ample": 1989,
      "Ġsum": 1990,
      "Ġord": 1991,
      "ĠGener": 1992,
      "Ġ50": 1993,
      "ĠThese": 1994,
      "Ġcond": 1995,
      "Ġeast": 1996,
      "Ġimportant": 1997,
      "ĠAmerica": 1998,
      "idence": 1999,
      "Ġgrow": 2000,
      "Ġpercent": 2001,
      "cer": 2002,
      "ffic": 2003,
      "aul": 2004,
      "ae": 2005,
      "hel": 2006,
      "Ġreally": 2007,
      "Ġanim": 2008,
      "Ġhapp": 2009,
      "Ġwest": 2010,
      "af": 2011,
      "Ġmeet": 2012,
      "ened": 2013,
      "Ġcor": 2014,
      "Ġground": 2015,
      "Ġfight": 2016,
      "Ġeconom": 2017,
      "ĠHigh": 2018,
      "aces": 2019,
      "Ġforces": 2020,
      "Ġsignific": 2021,
      "rie": 2022,
      "oman": 2023,
      "Ġnon": 2024,
      "Ġnews": 2025,
      "Ġperformance": 2026,
      "ĠRiver": 2027,
      "ĠSw": 2028,
      "Ġeight": 2029,
      "Ġrepresent": 2030,
      "Ġbig": 2031,
      "Ġ40": 2032,
      "Ġfav": 2033,
      "Ġ190": 2034,
      "ising": 2035,
      "Ġreturned": 2036,
      "levision": 2037,
      "Ġer": 2038,
      "Ġquest": 2039,
      "Ġcult": 2040,
      "roy": 2041,
      "Ġ27": 2042,
      "Ġfather": 2043,
      "Th": 2044,
      "Ġsays": 2045,
      "sc": 2046,
      "Ġbusiness": 2047,
      "Ġhard": 2048,
      "Ġorigin": 2049,
      "Ġelect": 2050,
      "Ġident": 2051,
      "Ġrelations": 2052,
      "Ġgen": 2053,
      "Ġthought": 2054,
      "Ġcome": 2055,
      "ran": 2056,
      "Ġ28": 2057,
      "ĠThat": 2058,
      "elling": 2059,
      "Ġseem": 2060,
      "ething": 2061,
      "Ġstated": 2062,
      "oe": 2063,
      "Ġonce": 2064,
      "iron": 2065,
      "ĠGl": 2066,
      "Ġste": 2067,
      "Ġblack": 2068,
      "ĠKe": 2069,
      "alt": 2070,
      "Ġcurrent": 2071,
      "Ġproduced": 2072,
      "Ġ2006": 2073,
      "Ġfield": 2074,
      "Ġpresident": 2075,
      "Ġ2014": 2076,
      "Ġred": 2077,
      "ators": 2078,
      "ĠIf": 2079,
      "Ġactiv": 2080,
      "Ġforce": 2081,
      "Ġtaken": 2082,
      "Ġmight": 2083,
      "Ġleast": 2084,
      "Ġaver": 2085,
      "Ġarg": 2086,
      "Ġannounced": 2087,
      "Ġhold": 2088,
      "ĠHouse": 2089,
      "Ġhit": 2090,
      "ids": 2091,
      "Ġstarted": 2092,
      "Ġstar": 2093,
      "ming": 2094,
      "Ġcritic": 2095,
      "Ġbetter": 2096,
      "Ġcut": 2097,
      "rict": 2098,
      "aur": 2099,
      "Ġbas": 2100,
      "Ġbegin": 2101,
      "Ġten": 2102,
      "ivid": 2103,
      "Ġfront": 2104,
      "ĠJack": 2105,
      "Ġsuper": 2106,
      "Ġfree": 2107,
      "Ġentire": 2108,
      "Ġhuman": 2109,
      "Ġimpro": 2110,
      "ael": 2111,
      "Ġkeep": 2112,
      "ĠAccording": 2113,
      "oice": 2114,
      "abor": 2115,
      "Ġbattle": 2116,
      "ression": 2117,
      "Ġyoung": 2118,
      "ipp": 2119,
      "Ġsqu": 2120,
      "ĠTo": 2121,
      "Ġ26": 2122,
      "irl": 2123,
      "Ġworking": 2124,
      "ĠJames": 2125,
      "Ġagre": 2126,
      "olution": 2127,
      "ole": 2128,
      "Ġchange": 2129,
      "Ġpromot": 2130,
      "ĠAustralia": 2131,
      "ival": 2132,
      "Ġage": 2133,
      "ĠLeague": 2134,
      "Ġever": 2135,
      "Ġdev": 2136,
      "Ġadded": 2137,
      "Ġrecorded": 2138,
      "Ġareas": 2139,
      "Ġcreated": 2140,
      "int": 2141,
      "Ġfelt": 2142,
      "Ġtry": 2143,
      "Ġtre": 2144,
      "Ġredu": 2145,
      "Ġcross": 2146,
      "Ġgeneral": 2147,
      "Ġtoget": 2148,
      "Ġpay": 2149,
      "ĠDiv": 2150,
      "Ġintrodu": 2151,
      "Ġtogether": 2152,
      "reg": 2153,
      "ressed": 2154,
      "ope": 2155,
      "iol": 2156,
      "Ġothers": 2157,
      "Ġcharacters": 2158,
      "lic": 2159,
      "Ġhy": 2160,
      "Ġpoints": 2161,
      "ĠGeneral": 2162,
      "Ġdied": 2163,
      "Ġnort": 2164,
      "Ġbody": 2165,
      "Ġearl": 2166,
      "aps": 2167,
      "Ġbar": 2168,
      "oyal": 2169,
      "Ġspecial": 2170,
      "ocr": 2171,
      "outhern": 2172,
      "Ġ2015": 2173,
      "thing": 2174,
      "den": 2175,
      "Ġsignificant": 2176,
      ").": 2177,
      "cast": 2178,
      "Ġson": 2179,
      "Ġprim": 2180,
      "app": 2181,
      "umb": 2182,
      "Ġcop": 2183,
      "Ġsomething": 2184,
      "Ġrev": 2185,
      "ception": 2186,
      "ĠPart": 2187,
      "Ġstri": 2188,
      "ana": 2189,
      "ivil": 2190,
      "Ġfall": 2191,
      "ĠComp": 2192,
      "Ġtitle": 2193,
      "ĠPer": 2194,
      "Ġfeel": 2195,
      "Ġmanag": 2196,
      "Ġcoun": 2197,
      "orts": 2198,
      "Ġexample": 2199,
      "ampionship": 2200,
      "dom": 2201,
      "ĠArmy": 2202,
      "Ġmust": 2203,
      "Ġaircraft": 2204,
      "Ġaud": 2205,
      "Ġhistor": 2206,
      "bor": 2207,
      "Ġvol": 2208,
      "Ġships": 2209,
      "Ġparty": 2210,
      "ĠPresident": 2211,
      "cing": 2212,
      "Ġlive": 2213,
      "Ġfund": 2214,
      "isted": 2215,
      "Ġrather": 2216,
      "Ġsongs": 2217,
      "ential": 2218,
      "ster": 2219,
      "Ġhere": 2220,
      "Ġdeveloped": 2221,
      "Ġrock": 2222,
      "urric": 2223,
      "ĠMor": 2224,
      "ĠSim": 2225,
      "ready": 2226,
      "ĠCounty": 2227,
      "Ġbehind": 2228,
      "rick": 2229,
      "Ġpract": 2230,
      "ades": 2231,
      "Ġkilled": 2232,
      "ĠStreet": 2233,
      "ps": 2234,
      "Ġpain": 2235,
      "ogn": 2236,
      "ination": 2237,
      "artment": 2238,
      "ĠMed": 2239,
      "Ġpast": 2240,
      "Ġbecom": 2241,
      "ividual": 2242,
      "ĠMon": 2243,
      "Ġinterest": 2244,
      "Ġindust": 2245,
      "aly": 2246,
      "ĠRepublic": 2247,
      "dle": 2248,
      "Ġinde": 2249,
      "Ġnoted": 2250,
      "Ġdr": 2251,
      "Ġavail": 2252,
      "Ġrank": 2253,
      "Ġrese": 2254,
      "Ġcoll": 2255,
      "Ġalmost": 2256,
      "ĠWash": 2257,
      "Ġfac": 2258,
      "Ġclear": 2259,
      "Ġbroad": 2260,
      "Ġpolice": 2261,
      "cher": 2262,
      "urg": 2263,
      "Ġtour": 2264,
      "imately": 2265,
      "ĠSer": 2266,
      "Ġfem": 2267,
      "Ġtro": 2268,
      "Ġsuccessful": 2269,
      "cil": 2270,
      "Ġtest": 2271,
      "Ġbatt": 2272,
      "Ġvarious": 2273,
      "Ġstruct": 2274,
      "ows": 2275,
      "Ġmiss": 2276,
      "Ġwhite": 2277,
      "Ġremained": 2278,
      "field": 2279,
      "Ġenc": 2280,
      "Ġobs": 2281,
      "Ġcy": 2282,
      "sel": 2283,
      "Ġmoney": 2284,
      "ĠEast": 2285,
      "oph": 2286,
      "ze": 2287,
      "ells": 2288,
      "Ġchart": 2289,
      "Ġreached": 2290,
      "Ġalready": 2291,
      "head": 2292,
      "aving": 2293,
      "Ġsaw": 2294,
      "Ġsex": 2295,
      "ĠIntern": 2296,
      "stand": 2297,
      "ought": 2298,
      "Ġball": 2299,
      "aid": 2300,
      "uture": 2301,
      "ĠMy": 2302,
      "Ġmember": 2303,
      "Ġrace": 2304,
      "Ġsour": 2305,
      "Ġft": 2306,
      "Ġinstead": 2307,
      "the": 2308,
      "Ġmult": 2309,
      "Ġstyle": 2310,
      "asing": 2311,
      "Ġcreat": 2312,
      "Ġtelevision": 2313,
      "Ġaction": 2314,
      "Ġplaying": 2315,
      "ĠPhil": 2316,
      "ĠReg": 2317,
      "ament": 2318,
      "Ġdecided": 2319,
      "ĠRober": 2320,
      "Ġ29": 2321,
      "Ġgot": 2322,
      "Ġmot": 2323,
      "lands": 2324,
      "ĠQu": 2325,
      "),": 2326,
      "Ġpra": 2327,
      "Ġ2005": 2328,
      "ĠMad": 2329,
      "Ġenough": 2330,
      "icle": 2331,
      "Ġclose": 2332,
      "rought": 2333,
      "Ġmean": 2334,
      "ĠDavid": 2335,
      "Ġwanted": 2336,
      "Ġ189": 2337,
      "ĠGeorge": 2338,
      "Ġseven": 2339,
      "ĠEm": 2340,
      "Ġquick": 2341,
      "ĠSch": 2342,
      "Ġthroughout": 2343,
      "ĠBill": 2344,
      "ĠWashington": 2345,
      "ien": 2346,
      "ĠAfric": 2347,
      "Ġrul": 2348,
      "ett": 2349,
      "ficult": 2350,
      "Ġsocial": 2351,
      "go": 2352,
      "Ġpossible": 2353,
      "Ġinj": 2354,
      "Ġfollowed": 2355,
      "Ġsite": 2356,
      "Ġmass": 2357,
      "Ġfle": 2358,
      "Ġstation": 2359,
      "Ġmor": 2360,
      "ĠJapanese": 2361,
      "ground": 2362,
      "Ġcirc": 2363,
      "ror": 2364,
      "Ġindividual": 2365,
      "stit": 2366,
      "aut": 2367,
      "iers": 2368,
      "Ġaccording": 2369,
      "Ġfoc": 2370,
      "Ġdifficult": 2371,
      "ned": 2372,
      "Ġcourt": 2373,
      "of": 2374,
      "Ġarm": 2375,
      "Ġemploy": 2376,
      "Ġdestroy": 2377,
      "tt": 2378,
      "Ġgoal": 2379,
      "Ġprot": 2380,
      "Ġweeks": 2381,
      "ks": 2382,
      "off": 2383,
      "Ġcomment": 2384,
      "ĠGr": 2385,
      "Ġrange": 2386,
      "Ġwriting": 2387,
      "iding": 2388,
      "20": 2389,
      "Ġtru": 2390,
      "Ġpred": 2391,
      "Ġpot": 2392,
      "ĠThom": 2393,
      "bert": 2394,
      "It": 2395,
      "istic": 2396,
      "Ġround": 2397,
      "Ġmater": 2398,
      "Ġz": 2399,
      "medi": 2400,
      "Ġren": 2401,
      "arm": 2402,
      "Ġlaun": 2403,
      "Ġbase": 2404,
      "Ġthings": 2405,
      "angu": 2406,
      "Ġhost": 2407,
      "ĠRoad": 2408,
      "Ġappeared": 2409,
      "Ġclos": 2410,
      "Ġpriv": 2411,
      "Ġeither": 2412,
      "Ġsaying": 2413,
      "Ġserved": 2414,
      "Ġworks": 2415,
      "ĠRich": 2416,
      "ourn": 2417,
      "uk": 2418,
      "Ġfeatures": 2419,
      "pected": 2420,
      "urricane": 2421,
      "Ġstop": 2422,
      "Ġtalk": 2423,
      "Ġtyp": 2424,
      "rain": 2425,
      "Ġsuff": 2426,
      "ills": 2427,
      "ĠBlack": 2428,
      "Ġavailable": 2429,
      "Ġgive": 2430,
      "Ġcommit": 2431,
      "50": 2432,
      "aper": 2433,
      "men": 2434,
      "ĠRes": 2435,
      "ĠDivision": 2436,
      "emy": 2437,
      "for": 2438,
      "Ġthreat": 2439,
      "ĠBo": 2440,
      "Ġreve": 2441,
      "odes": 2442,
      "urb": 2443,
      "itch": 2444,
      "Ġfeet": 2445,
      "ara": 2446,
      "Ġoffice": 2447,
      "Ġmix": 2448,
      "itor": 2449,
      "Ġworked": 2450,
      "Ġperformed": 2451,
      "lished": 2452,
      "Ġeventually": 2453,
      "Ġesc": 2454,
      "Ġfig": 2455,
      "Ġmodern": 2456,
      "Ġaccept": 2457,
      "ĠAct": 2458,
      "Ġprofess": 2459,
      "Ġdou": 2460,
      "ĠâĢĻ": 2461,
      "ĠSome": 2462,
      "osition": 2463,
      "Ġarch": 2464,
      "orpor": 2465,
      "Ġdeal": 2466,
      "ĠDon": 2467,
      "Ġneg": 2468,
      "Ġcaused": 2469,
      "Ġlot": 2470,
      "ĠRed": 2471,
      "Ġcou": 2472,
      "Ġproper": 2473,
      "ĠDem": 2474,
      "Ġlack": 2475,
      "Ġloss": 2476,
      "ĠSan": 2477,
      "ays": 2478,
      "Ġmother": 2479,
      "Ġexec": 2480,
      "rem": 2481,
      "Ġpolic": 2482,
      "ius": 2483,
      "Ġrelationship": 2484,
      "Ġcontract": 2485,
      "Ġce": 2486,
      "ĠHen": 2487,
      "ceed": 2488,
      "Ġpopulation": 2489,
      "Ġ31": 2490,
      "ected": 2491,
      "Ġaverage": 2492,
      "ude": 2493,
      "Ġmiles": 2494,
      "Ġmer": 2495,
      "BC": 2496,
      "itar": 2497,
      "Ġhom": 2498,
      "ino": 2499,
      "Ġstage": 2500,
      "Ġaccount": 2501,
      "Ġoccur": 2502,
      "uel": 2503,
      "Ġassoci": 2504,
      "Ġaward": 2505,
      "ĠMichael": 2506,
      "imate": 2507,
      "Ġlove": 2508,
      "Ġestablished": 2509,
      "Ġrespect": 2510,
      "unk": 2511,
      "Ġtax": 2512,
      "wood": 2513,
      "Ġupon": 2514,
      "rap": 2515,
      "etwork": 2516,
      "Ġreb": 2517,
      "Ġviol": 2518,
      "ĠIndian": 2519,
      "now": 2520,
      "Ġfuture": 2521,
      "ĠPaul": 2522,
      "ĠStar": 2523,
      "Ġbrought": 2524,
      "Ġasked": 2525,
      "Ġengine": 2526,
      "ĠAustralian": 2527,
      "Ġconv": 2528,
      "vert": 2529,
      "Ġleading": 2530,
      "Ġsepar": 2531,
      "Ġalways": 2532,
      "Ġallowed": 2533,
      "ĠAg": 2534,
      "Ġinformation": 2535,
      "Ġroom": 2536,
      "Ġhours": 2537,
      "Ġsurv": 2538,
      "Ġprob": 2539,
      "ological": 2540,
      "uff": 2541,
      "Ġaccom": 2542,
      "ĠDep": 2543,
      "ĠCour": 2544,
      "Ġjob": 2545,
      "Ġfell": 2546,
      "Ġbrother": 2547,
      "Ġreach": 2548,
      "Ġnov": 2549,
      "Ġsoon": 2550,
      "Ġbreak": 2551,
      "Ġhon": 2552,
      "ability": 2553,
      "Ġcertain": 2554,
      "ĠRec": 2555,
      "Ġmedia": 2556,
      "aves": 2557,
      "Ġcoast": 2558,
      "Ġmm": 2559,
      "Ġmaterial": 2560,
      "xic": 2561,
      "Ġrecogn": 2562,
      "ĠSen": 2563,
      "Ġmarket": 2564,
      "ĠSchool": 2565,
      "urity": 2566,
      "por": 2567,
      "aval": 2568,
      "ĠWhite": 2569,
      "ky": 2570,
      "Ġscene": 2571,
      "Ġtaking": 2572,
      "Ġdeter": 2573,
      "reek": 2574,
      ".[": 2575,
      "Ġroute": 2576,
      "Ġaccess": 2577,
      "Ġissue": 2578,
      "Ġshot": 2579,
      "oor": 2580,
      "Ġexist": 2581,
      "ĠOther": 2582,
      "minist": 2583,
      "lin": 2584,
      "Ġhealth": 2585,
      "isc": 2586,
      "Ġprovided": 2587,
      "ĠÃ": 2588,
      "Ġevents": 2589,
      "Ġtradition": 2590,
      "Ġdamage": 2591,
      "Ġcommunity": 2592,
      "Ġformed": 2593,
      "ault": 2594,
      "Ġlocated": 2595,
      "ĠHam": 2596,
      "back": 2597,
      "Ġparticip": 2598,
      "Ġinvolved": 2599,
      "Ġregion": 2600,
      "Ġinvestig": 2601,
      "Ġpie": 2602,
      "Ġrespons": 2603,
      "ĠHist": 2604,
      "igned": 2605,
      "rison": 2606,
      "ights": 2607,
      "Ġmeas": 2608,
      "ĠFrance": 2609,
      "ĠAle": 2610,
      "ĠJe": 2611,
      "ference": 2612,
      "Ġcontrib": 2613,
      "Ġminutes": 2614,
      "Ġcrew": 2615,
      "Ġearlier": 2616,
      "ergy": 2617,
      "ification": 2618,
      "Ġtowards": 2619,
      "ĠRoyal": 2620,
      "Ġidea": 2621,
      "Ġopened": 2622,
      "rown": 2623,
      "Ġheavy": 2624,
      "Ġconstruction": 2625,
      "board": 2626,
      "aled": 2627,
      "erous": 2628,
      "orse": 2629,
      "chie": 2630,
      "ĠSqu": 2631,
      "Ġopt": 2632,
      "ĠEuropean": 2633,
      "Ġcompleted": 2634,
      "Ġoutside": 2635,
      "Ġ2004": 2636,
      "oke": 2637,
      "Ġ!": 2638,
      "ederal": 2639,
      "uation": 2640,
      "aring": 2641,
      "ership": 2642,
      "tain": 2643,
      "Ġmount": 2644,
      "Ġtreat": 2645,
      "Ġtropical": 2646,
      "Ġey": 2647,
      "Ġphys": 2648,
      "leg": 2649,
      "utive": 2650,
      "Ġvill": 2651,
      "Ġrelig": 2652,
      "Ġcondu": 2653,
      "ĠBer": 2654,
      "anks": 2655,
      "Ġphot": 2656,
      "iction": 2657,
      "Ġwhether": 2658,
      "Ġdone": 2659,
      "ica": 2660,
      "Ġsus": 2661,
      "ength": 2662,
      "face": 2663,
      "Ġtravel": 2664,
      "Ġlikely": 2665,
      "Ġdirector": 2666,
      "iforn": 2667,
      "oint": 2668,
      "Ġguns": 2669,
      "iber": 2670,
      "Ġabove": 2671,
      "key": 2672,
      "Ġfif": 2673,
      "Ġindic": 2674,
      "Ġcourse": 2675,
      "Ġwife": 2676,
      "ĠVir": 2677,
      "ware": 2678,
      "inn": 2679,
      "Ġ2000": 2680,
      "Ġinterview": 2681,
      "ĠSo": 2682,
      "Ġlangu": 2683,
      "ĠFirst": 2684,
      "Ġeduc": 2685,
      "iled": 2686,
      "ateg": 2687,
      "Ġ188": 2688,
      "Ġmem": 2689,
      "Ġregular": 2690,
      "Ġborn": 2691,
      "Ġill": 2692,
      "ibility": 2693,
      "Ġwid": 2694,
      "Ġitself": 2695,
      "selves": 2696,
      "Ġturned": 2697,
      "ĠAngel": 2698,
      "Ġtar": 2699,
      "ĠMr": 2700,
      "Ġstates": 2701,
      "ey": 2702,
      "Ġkind": 2703,
      "Ã¡": 2704,
      "Ġvoc": 2705,
      "ĠPort": 2706,
      "pecially": 2707,
      "ĠPlay": 2708,
      "Ġregard": 2709,
      "rey": 2710,
      "ĠCong": 2711,
      "Ġ186": 2712,
      "Ġdesigned": 2713,
      "Ġblock": 2714,
      "clus": 2715,
      "nes": 2716,
      "ĠCaliforn": 2717,
      "Ġoriginally": 2718,
      "Ġfourth": 2719,
      "ilities": 2720,
      "ique": 2721,
      "pper": 2722,
      "Ġterm": 2723,
      "Ġspace": 2724,
      "Ġpark": 2725,
      "Ġfood": 2726,
      "Ġenv": 2727,
      "atural": 2728,
      "amer": 2729,
      "Ġsubsequ": 2730,
      "ula": 2731,
      "ĠRobert": 2732,
      "Ġsele": 2733,
      "arter": 2734,
      "Ġspeed": 2735,
      "Ġconcern": 2736,
      "anned": 2737,
      "ĠMil": 2738,
      "Ġremov": 2739,
      "Ġparticularly": 2740,
      "ĠPal": 2741,
      "ville": 2742,
      "ĠMart": 2743,
      "Ġdecision": 2744,
      "etimes": 2745,
      "ĠBel": 2746,
      "azine": 2747,
      "ishing": 2748,
      "Ġgroups": 2749,
      "oul": 2750,
      "Ġruns": 2751,
      "ĠQue": 2752,
      "cial": 2753,
      "ĠCup": 2754,
      "Ġstudy": 2755,
      "overed": 2756,
      "We": 2757,
      "Ġdi": 2758,
      "asons": 2759,
      "Ġimmedi": 2760,
      "ĠHall": 2761,
      "ĠCalifornia": 2762,
      "ĠColle": 2763,
      "rian": 2764,
      "10": 2765,
      "Ġabs": 2766,
      "tee": 2767,
      "Ġdiscuss": 2768,
      "aker": 2769,
      "ĠLou": 2770,
      "ĠGod": 2771,
      "ĠDan": 2772,
      "Ġgenerally": 2773,
      "ĠCanada": 2774,
      "ortun": 2775,
      "Ġexperience": 2776,
      "bers": 2777,
      "Ġexc": 2778,
      "ĠIm": 2779,
      "Ġplaced": 2780,
      "ume": 2781,
      "pris": 2782,
      "Ġpers": 2783,
      "Ġinternational": 2784,
      "antic": 2785,
      "Ġspent": 2786,
      "Ġdoc": 2787,
      "ĠNor": 2788,
      "Ġlargest": 2789,
      "Ġbelieved": 2790,
      "Ġfr": 2791,
      "Ġsubject": 2792,
      "rag": 2793,
      "ĠJust": 2794,
      "Ġ500": 2795,
      "ule": 2796,
      "isl": 2797,
      "Ġchanges": 2798,
      "Ġpeak": 2799,
      "ĠLa": 2800,
      "Ġdisp": 2801,
      "osing": 2802,
      "Ġevidence": 2803,
      "Ġcred": 2804,
      "Ġspecific": 2805,
      "Ġespecially": 2806,
      "iation": 2807,
      "Ġvictory": 2808,
      "Ġtraining": 2809,
      "ma": 2810,
      "oring": 2811,
      "ĠMal": 2812,
      "ĠGame": 2813,
      "Ġelection": 2814,
      "Ġarmy": 2815,
      "hib": 2816,
      "ago": 2817,
      "ĠBattle": 2818,
      "Ġdata": 2819,
      "Ġproduct": 2820,
      "onse": 2821,
      "Ġinsp": 2822,
      "oid": 2823,
      "ĠHol": 2824,
      "Ġfeatured": 2825,
      "ios": 2826,
      "Ġkey": 2827,
      "Ġ2003": 2828,
      "ĠHenry": 2829,
      "Ġlength": 2830,
      "Ġshoot": 2831,
      "Ġ2016": 2832,
      "Ġcritics": 2833,
      "Ġgrad": 2834,
      "Ġquestion": 2835,
      "Ġjoined": 2836,
      "ĠBest": 2837,
      "ĠMary": 2838,
      "ee": 2839,
      "Ġscored": 2840,
      "Ġself": 2841,
      "Ġyet": 2842,
      "ĠCourt": 2843,
      "Ġfootball": 2844,
      "Ġincreased": 2845,
      "Ġindepend": 2846,
      "ĠMcC": 2847,
      "Ġmakes": 2848,
      "Ġshows": 2849,
      "Ġtroops": 2850,
      "Ġdidn": 2851,
      "ĠGreat": 2852,
      "ĠSmith": 2853,
      "Ġactually": 2854,
      "ĠFollow": 2855,
      "ĠFrom": 2856,
      "Ġwall": 2857,
      "enes": 2858,
      "asion": 2859,
      "Ġrights": 2860,
      "Ġamount": 2861,
      "Ġking": 2862,
      "ĠMac": 2863,
      "Ġcentral": 2864,
      "unt": 2865,
      "Ġforced": 2866,
      "âĢĶâĢĶ": 2867,
      "rang": 2868,
      "arily": 2869,
      "ĠMusic": 2870,
      "Ġlearn": 2871,
      "Ġpur": 2872,
      "Ġresearch": 2873,
      "Ġ187": 2874,
      "ĠSam": 2875,
      "ruct": 2876,
      "Ġscore": 2877,
      "Ġachie": 2878,
      "Ġdetail": 2879,
      "Ġlower": 2880,
      "Ġbring": 2881,
      "Ġâ": 2882,
      "Ġlo": 2883,
      "Ġreason": 2884,
      "Ġprovide": 2885,
      "Ġhighest": 2886,
      "Ġcommer": 2887,
      "ĠVal": 2888,
      "aughter": 2889,
      "Ġpassed": 2890,
      "Ġbomb": 2891,
      "ĠBra": 2892,
      "ĠTimes": 2893,
      "ĠBrown": 2894,
      "ĠMag": 2895,
      "Ġobject": 2896,
      "ands": 2897,
      "fe": 2898,
      "Ġrail": 2899,
      "ĠMark": 2900,
      "ĠIndia": 2901,
      "de": 2902,
      "Ġanti": 2903,
      "ĠSl": 2904,
      "ĠHill": 2905,
      "Ġhous": 2906,
      "Ġface": 2907,
      "Ġestim": 2908,
      "Ġsigned": 2909,
      "ĠTrump": 2910,
      "Ġcreate": 2911,
      "Ġended": 2912,
      "Ġopening": 2913,
      "lying": 2914,
      "Ġnomin": 2915,
      "Ġtarget": 2916,
      "ĠScott": 2917,
      "Ġcivil": 2918,
      "ĠUK": 2919,
      "Ġwhose": 2920,
      "rated": 2921,
      "ida": 2922,
      "ĠMet": 2923,
      "ĠMid": 2924,
      "Ġreplaced": 2925,
      "ĠAtl": 2926,
      "sec": 2927,
      "Ġfinished": 2928,
      "Ġrequired": 2929,
      "ournal": 2930,
      "Ġpersonal": 2931,
      "ĠInternational": 2932,
      "ĠSing": 2933,
      "ĠNot": 2934,
      "mon": 2935,
      "Ġcompan": 2936,
      "not": 2937,
      "Ġquickly": 2938,
      "ites": 2939,
      "Ġconsider": 2940,
      "che": 2941,
      "Ġthemselves": 2942,
      "Ġjud": 2943,
      "ography": 2944,
      "Ġsat": 2945,
      "Ġfriends": 2946,
      "Ġstudents": 2947,
      "ston": 2948,
      "ĠDo": 2949,
      "Ġmom": 2950,
      "Ġris": 2951,
      "Ġstaff": 2952,
      "ĠDespite": 2953,
      "atory": 2954,
      "Ġfailed": 2955,
      "Ġmi": 2956,
      "Ġprobably": 2957,
      "ĠTwo": 2958,
      "ĠPat": 2959,
      "Ġrunning": 2960,
      "rab": 2961,
      "ĠDemocr": 2962,
      "Ġbene": 2963,
      "Ġsym": 2964,
      "Ġtoday": 2965,
      "Ġpoor": 2966,
      "ĠWil": 2967,
      "ĠThomas": 2968,
      "Ġinn": 2969,
      "Ġresponse": 2970,
      "Ġgirl": 2971,
      "Ġprevent": 2972,
      "ify": 2973,
      "ĠUnion": 2974,
      "ĠBay": 2975,
      "west": 2976,
      "Ġden": 2977,
      "Ġnar": 2978,
      "ĠChina": 2979,
      "Ġchall": 2980,
      "Ġparts": 2981,
      "Ġteams": 2982,
      "Ġmeans": 2983,
      "ĠMer": 2984,
      "Ġassist": 2985,
      "ĠRoman": 2986,
      "Ġdro": 2987,
      "Ġsil": 2988,
      "Ġdespite": 2989,
      "Ġtype": 2990,
      "rupt": 2991,
      "Ġwhy": 2992,
      "Ġ|": 2993,
      "ĠFollowing": 2994,
      "ander": 2995,
      "Ġsouthern": 2996,
      "ening": 2997,
      "ĠAssoci": 2998,
      "Ġchurch": 2999,
      "Ġ2001": 3000,
      "Ġimm": 3001,
      "ĠMexic": 3002,
      "Ġpositive": 3003,
      "Ġcountries": 3004,
      "Ġwoman": 3005,
      "Ġcal": 3006,
      "Ġbi": 3007,
      "Ġbad": 3008,
      "Ġbeginning": 3009,
      "Ġ60": 3010,
      "Ġisland": 3011,
      "Ġinitially": 3012,
      "ĠVirgin": 3013,
      "Ġscreen": 3014,
      "van": 3015,
      "reng": 3016,
      "Ġdefend": 3017,
      "ironment": 3018,
      "Ġpen": 3019,
      "nel": 3020,
      "ĠTom": 3021,
      "Ġthing": 3022,
      "Ġsequ": 3023,
      "ift": 3024,
      "Ġhop": 3025,
      "itz": 3026,
      "ĠSoc": 3027,
      "fall": 3028,
      "atives": 3029,
      "Ġdeep": 3030,
      "ĠAlex": 3031,
      "ĠGermany": 3032,
      "aries": 3033,
      "ĠGovern": 3034,
      "ĠOb": 3035,
      "su": 3036,
      "Ġwat": 3037,
      "idents": 3038,
      "iles": 3039,
      "30": 3040,
      "Ġhigher": 3041,
      "adron": 3042,
      "Ġstudio": 3043,
      "ĠChampionship": 3044,
      "Ġsometimes": 3045,
      "ires": 3046,
      "hing": 3047,
      "Ġlonger": 3048,
      "Ġpreviously": 3049,
      "tr": 3050,
      "wh": 3051,
      "Ġdoing": 3052,
      "ethod": 3053,
      "ĠRock": 3054,
      "Ġdead": 3055,
      "Ġemer": 3056,
      "ession": 3057,
      "arent": 3058,
      "Ġcru": 3059,
      "iple": 3060,
      "ĠCharles": 3061,
      "Ġforward": 3062,
      "Ġlab": 3063,
      "ĠGold": 3064,
      "Ġnearly": 3065,
      "ĠChurch": 3066,
      "Ġconn": 3067,
      "onst": 3068,
      "Ġi": 3069,
      "Ġly": 3070,
      "irth": 3071,
      "rief": 3072,
      "Ġunits": 3073,
      "Ġunc": 3074,
      "Ġadditional": 3075,
      "erved": 3076,
      "Ġadminist": 3077,
      "Ġcomplet": 3078,
      "NA": 3079,
      "Wh": 3080,
      "alled": 3081,
      "elled": 3082,
      "Ġcand": 3083,
      "Ġ2002": 3084,
      "ĠNavy": 3085,
      "Ġappearance": 3086,
      "ĠDr": 3087,
      "berg": 3088,
      "Ġbit": 3089,
      "ĠTex": 3090,
      "Ġissues": 3091,
      "Ġnine": 3092,
      "ointed": 3093,
      "Ġgold": 3094,
      "sy": 3095,
      "Ġnetwork": 3096,
      "ĠRichard": 3097,
      "Ġnovel": 3098,
      "Ġfavor": 3099,
      "Ġpick": 3100,
      "ĠStud": 3101,
      "Ġhighway": 3102,
      "Ġslow": 3103,
      "ĠKingdom": 3104,
      "Ġfans": 3105,
      "Ġfilms": 3106,
      "ully": 3107,
      "Ġproblem": 3108,
      "edy": 3109,
      "Ġnorthern": 3110,
      "ĠArt": 3111,
      "Ġfrequ": 3112,
      "ki": 3113,
      "ĠTw": 3114,
      "ĠAc": 3115,
      "Ġstay": 3116,
      "Ġsection": 3117,
      "ĠTer": 3118,
      "Ġliving": 3119,
      "oms": 3120,
      "heast": 3121,
      "ĠChristian": 3122,
      "Ġremain": 3123,
      "Ġ35": 3124,
      "Ġusually": 3125,
      "ĠÂ£": 3126,
      "ĠâĢĺ": 3127,
      "ex": 3128,
      "Ġwhole": 3129,
      "Ġsize": 3130,
      "Ġneeded": 3131,
      "Ġmph": 3132,
      "ĠRob": 3133,
      "Ġreact": 3134,
      "rug": 3135,
      "Ġstreng": 3136,
      "ĠUp": 3137,
      "Ġcomplete": 3138,
      "airs": 3139,
      "ĠCoun": 3140,
      "Ġplat": 3141,
      "Ġprem": 3142,
      "ĠÂ°": 3143,
      "Ġsummer": 3144,
      "Ġmovement": 3145,
      "Ġleague": 3146,
      "wer": 3147,
      "uth": 3148,
      "Ġcenter": 3149,
      "Ġordered": 3150,
      "Ġprison": 3151,
      "mar": 3152,
      "nding": 3153,
      "amb": 3154,
      "ĠCongress": 3155,
      "ĠDay": 3156,
      "Ġbeg": 3157,
      "Ġpressure": 3158,
      "Ġ1990": 3159,
      "Ġwhom": 3160,
      "Ġclaimed": 3161,
      "Ġfinanc": 3162,
      "ĠIsland": 3163,
      "erve": 3164,
      "Ġlines": 3165,
      "inese": 3166,
      "raw": 3167,
      "Ġcust": 3168,
      "Ġprior": 3169,
      "ĠWestern": 3170,
      "uter": 3171,
      "Ġproblems": 3172,
      "St": 3173,
      "enced": 3174,
      "Ġservices": 3175,
      "ĠParty": 3176,
      "asc": 3177,
      "Ġfocus": 3178,
      "ij": 3179,
      "Ġimpact": 3180,
      "Ġboy": 3181,
      "Ġtransfer": 3182,
      "Ġmess": 3183,
      "Ġdraw": 3184,
      "Ġlink": 3185,
      "ĠSuper": 3186,
      "igan": 3187,
      "Ġindustry": 3188,
      "Ġplans": 3189,
      "ĠPri": 3190,
      "hem": 3191,
      "Ġincrease": 3192,
      "ĠRoute": 3193,
      "Ġcycl": 3194,
      "gen": 3195,
      "aint": 3196,
      "Ġweap": 3197,
      "ĠBen": 3198,
      "ension": 3199,
      "Ġenergy": 3200,
      "Ġbur": 3201,
      "Ġcapital": 3202,
      "Ġleader": 3203,
      "Ġleave": 3204,
      "ĠVict": 3205,
      "omm": 3206,
      "icles": 3207,
      "ging": 3208,
      "ĠBur": 3209,
      "ĠCollege": 3210,
      "Ġprivate": 3211,
      "ĠMount": 3212,
      "Ġliter": 3213,
      "ha": 3214,
      "Ġwatch": 3215,
      "Ġfir": 3216,
      "Ġlarger": 3217,
      "ĠPeter": 3218,
      "Ġelements": 3219,
      "Ġpraised": 3220,
      "ĠMost": 3221,
      "Ġmind": 3222,
      "Ġeffects": 3223,
      "Ġbelow": 3224,
      "Ġsurface": 3225,
      "hester": 3226,
      "antry": 3227,
      "Ġterms": 3228,
      "Ġsea": 3229,
      "Ġheart": 3230,
      "Ġminor": 3231,
      "acing": 3232,
      "mitted": 3233,
      "Ġdate": 3234,
      "Ġfemale": 3235,
      "Ġlanguage": 3236,
      "ĠBritain": 3237,
      "ulated": 3238,
      "ĠChinese": 3239,
      "right": 3240,
      "Ġradio": 3241,
      "Ġwalk": 3242,
      "ores": 3243,
      "Ġintroduced": 3244,
      "Ġder": 3245,
      "Ġoverall": 3246,
      "This": 3247,
      "Ġge": 3248,
      "ĠFlor": 3249,
      "ĠServ": 3250,
      "Ġrecording": 3251,
      "Ġdebut": 3252,
      "Ġoccup": 3253,
      "Ġmach": 3254,
      "ĠKore": 3255,
      "liam": 3256,
      "ria": 3257,
      "ĠCast": 3258,
      "ĠChic": 3259,
      "uge": 3260,
      "fact": 3261,
      "onna": 3262,
      "iff": 3263,
      "iant": 3264,
      "ĠGreen": 3265,
      "Ġunderstand": 3266,
      "ises": 3267,
      "Ġlimited": 3268,
      "iter": 3269,
      "Ġbelieve": 3270,
      "Ġrecent": 3271,
      "Ġpurch": 3272,
      "change": 3273,
      "hood": 3274,
      "Ġboard": 3275,
      "ny": 3276,
      "Ġtakes": 3277,
      "Ġmeeting": 3278,
      "Ġlay": 3279,
      "Ġmodel": 3280,
      "Ġbecoming": 3281,
      "ĠFranc": 3282,
      "Ġcontinue": 3283,
      "Ġscient": 3284,
      "ĠSpan": 3285,
      "order": 3286,
      "Ġconfir": 3287,
      "Ġchanged": 3288,
      "ili": 3289,
      "ĠCont": 3290,
      "ĠJew": 3291,
      "Ġapproach": 3292,
      "Ġdirected": 3293,
      "Ġvia": 3294,
      "Ġacqu": 3295,
      "Ġdark": 3296,
      "ĠPac": 3297,
      "Ġhelped": 3298,
      "aily": 3299,
      "ĠTV": 3300,
      "Ġcoach": 3301,
      "ena": 3302,
      "ĠCompany": 3303,
      "liament": 3304,
      "Ġarrived": 3305,
      "Ġsurround": 3306,
      "ĠLos": 3307,
      "rong": 3308,
      "use": 3309,
      "Ġrain": 3310,
      "Ġvisit": 3311,
      "Ġemb": 3312,
      "ĠFrank": 3313,
      "Ġpolicy": 3314,
      "ĠOver": 3315,
      "Ġcomes": 3316,
      "Ġult": 3317,
      "Ġdisplay": 3318,
      "Ġ36": 3319,
      "utions": 3320,
      "Ġ80": 3321,
      "ĠNY": 3322,
      "Ġserious": 3323,
      "Ġnorm": 3324,
      "Ġfeature": 3325,
      "ĠGrand": 3326,
      "Ġtemper": 3327,
      "Ġincreasing": 3328,
      "Ġhurricane": 3329,
      "Ġwinning": 3330,
      "Ġlegal": 3331,
      "Ġreviews": 3332,
      "Ġnatural": 3333,
      "imum": 3334,
      "Ġleaving": 3335,
      "omer": 3336,
      "lim": 3337,
      "Ġbrief": 3338,
      "atively": 3339,
      "ulf": 3340,
      "Ġremains": 3341,
      "Ġcommercial": 3342,
      "Ġcause": 3343,
      "Ġrap": 3344,
      "Ġdig": 3345,
      "ĠTra": 3346,
      "Ġcompared": 3347,
      "hold": 3348,
      "izing": 3349,
      "isions": 3350,
      "ĠAward": 3351,
      "oviet": 3352,
      "ĠForce": 3353,
      "Ġfederal": 3354,
      "ĠLouis": 3355,
      "Ġstructure": 3356,
      "lement": 3357,
      "irt": 3358,
      "Ġinfluence": 3359,
      "Ġexpected": 3360,
      "uments": 3361,
      "ĠNews": 3362,
      "Ġwinds": 3363,
      "ider": 3364,
      "ĠTexas": 3365,
      "ply": 3366,
      "Ġbill": 3367,
      "joy": 3368,
      "Ġofficers": 3369,
      "Ġsen": 3370,
      "Ġcandid": 3371,
      "oo": 3372,
      "ements": 3373,
      "Ġsecret": 3374,
      "Ġmagazine": 3375,
      "ĠSoviet": 3376,
      "Ġcoming": 3377,
      "Ġcarry": 3378,
      "Ġsuggested": 3379,
      "AA": 3380,
      "het": 3381,
      "Ġdeg": 3382,
      "Ġplant": 3383,
      "ĠKh": 3384,
      "ech": 3385,
      "ga": 3386,
      "Ġwide": 3387,
      "enty": 3388,
      "Ġmur": 3389,
      "Ġtransport": 3390,
      "Ġdoesn": 3391,
      "Ġproposed": 3392,
      "ĠCenter": 3393,
      "Ġple": 3394,
      "Ġcommission": 3395,
      "Ġcomplex": 3396,
      "oud": 3397,
      "Ġremaining": 3398,
      "Ġ?": 3399,
      "19": 3400,
      "Ġwestern": 3401,
      "anced": 3402,
      "Ġofficials": 3403,
      "Ġ32": 3404,
      "ĠDepartment": 3405,
      "Ġcele": 3406,
      "Ġrate": 3407,
      "rast": 3408,
      "inct": 3409,
      "ĠYear": 3410,
      "Ġfort": 3411,
      "Ġquarter": 3412,
      "Ġmethod": 3413,
      "vey": 3414,
      "ibr": 3415,
      "Ġcompanies": 3416,
      "Ġdaughter": 3417,
      "ĠRussian": 3418,
      "Ġagreed": 3419,
      "Ġcompl": 3420,
      "Ġbridge": 3421,
      "Ġtrying": 3422,
      "Ġability": 3423,
      "Ġtrib": 3424,
      "orial": 3425,
      "pan": 3426,
      "iser": 3427,
      "vin": 3428,
      "Ġeconomic": 3429,
      "ĠCr": 3430,
      "Ġattract": 3431,
      "ously": 3432,
      "eum": 3433,
      "ĠCouncil": 3434,
      "owers": 3435,
      "ospital": 3436,
      "Ġanal": 3437,
      "Ġcarried": 3438,
      "Ġnecess": 3439,
      "Ġincludes": 3440,
      "Ġveh": 3441,
      "Ġenvironment": 3442,
      "Ġwa": 3443,
      "ĠFilm": 3444,
      "Ġ1980": 3445,
      "ĠVirginia": 3446,
      "ĠDis": 3447,
      "Ġrelated": 3448,
      "Ġexam": 3449,
      "Ġnumbers": 3450,
      "Ġ1970": 3451,
      "Ġimmediately": 3452,
      "Ġmajority": 3453,
      "ĠChicago": 3454,
      "asy": 3455,
      "Ġlegisl": 3456,
      "porary": 3457,
      "Ġpil": 3458,
      "Ġmostly": 3459,
      "Ġ#": 3460,
      "ĠAwards": 3461,
      "bour": 3462,
      "ounds": 3463,
      "Ġestimated": 3464,
      "Ġ45": 3465,
      "ĠWhat": 3466,
      "Ġsupported": 3467,
      "Ġbox": 3468,
      "reme": 3469,
      "Ġdistrib": 3470,
      "Ġoperations": 3471,
      "Ġintended": 3472,
      "ĠJohnson": 3473,
      "Ġimprove": 3474,
      "ems": 3475,
      "ĠMill": 3476,
      "ĠJackson": 3477,
      "aches": 3478,
      "ĠSal": 3479,
      "Ġattacks": 3480,
      "Ġbank": 3481,
      "Ġ1999": 3482,
      "Ġestablish": 3483,
      "Ġcases": 3484,
      "Ġapprox": 3485,
      "Ġcat": 3486,
      "Ġdram": 3487,
      "Ġwords": 3488,
      "Ġgoals": 3489,
      "ĠIr": 3490,
      "alion": 3491,
      "Ġran": 3492,
      "Ġcounter": 3493,
      "ĠDu": 3494,
      "Ġens": 3495,
      "Ġcle": 3496,
      "ĠVictor": 3497,
      "Ġwood": 3498,
      "down": 3499,
      "sen": 3500,
      "ari": 3501,
      "Ġconcept": 3502,
      "rics": 3503,
      "ĠAssociation": 3504,
      "Ġepisodes": 3505,
      "Ġstep": 3506,
      "rd": 3507,
      "Ġarrest": 3508,
      "ĠApp": 3509,
      "ĠRo": 3510,
      "Ġtrade": 3511,
      "Ġterrit": 3512,
      "rael": 3513,
      "Ġshown": 3514,
      "can": 3515,
      "Ġgra": 3516,
      "Ġvoice": 3517,
      "Ġopportun": 3518,
      "itation": 3519,
      "Ġentered": 3520,
      "umn": 3521,
      "ĠInter": 3522,
      "venue": 3523,
      "Ġattend": 3524,
      "tained": 3525,
      "rel": 3526,
      "Ġlatter": 3527,
      "Ġmanager": 3528,
      "Ġsuggest": 3529,
      "ĠFlorida": 3530,
      "Ġthus": 3531,
      "ĠHot": 3532,
      "lymp": 3533,
      "ĠMany": 3534,
      "zz": 3535,
      "ĠMo": 3536,
      "Ġadapt": 3537,
      "ĠEarth": 3538,
      "itect": 3539,
      "Ġconditions": 3540,
      "ĠClub": 3541,
      "ĠEv": 3542,
      "Ġhot": 3543,
      "reater": 3544,
      "ĠInf": 3545,
      "Ġenjoy": 3546,
      "ĠSecond": 3547,
      "Ġshare": 3548,
      "ĠOff": 3549,
      "Ġattention": 3550,
      "Ġpotential": 3551,
      "aded": 3552,
      "enth": 3553,
      "Ġappears": 3554,
      "II": 3555,
      "Ġfinally": 3556,
      "ĠOlymp": 3557,
      "Ġscript": 3558,
      "Ġwriter": 3559,
      "But": 3560,
      "urt": 3561,
      "ĠSpanish": 3562,
      "Ġmatter": 3563,
      "undred": 3564,
      "cript": 3565,
      "rial": 3566,
      "Ġ70": 3567,
      "Ġfit": 3568,
      "Ġadop": 3569,
      "Ġofficer": 3570,
      "Ġstatus": 3571,
      "aught": 3572,
      "Ġbroadcast": 3573,
      "Ġflood": 3574,
      "Ġmusical": 3575,
      "ĠZe": 3576,
      "Ġblood": 3577,
      "ĠEnter": 3578,
      "olic": 3579,
      "ĠTrans": 3580,
      "Ġdomin": 3581,
      "Ġconclud": 3582,
      "Ġgrand": 3583,
      "Ġsecurity": 3584,
      "uing": 3585,
      "ĠLater": 3586,
      "ĠSince": 3587,
      "ado": 3588,
      "ĠDist": 3589,
      "riage": 3590,
      "Ġlooking": 3591,
      "ĠRh": 3592,
      "band": 3593,
      "Ġver": 3594,
      "Ġmoving": 3595,
      "ĠTor": 3596,
      "Ġsal": 3597,
      "itiz": 3598,
      "Ġgetting": 3599,
      "Ġprotect": 3600,
      "Ġissued": 3601,
      "arents": 3602,
      "Ġnature": 3603,
      "Ġplanned": 3604,
      "Ġdestroyed": 3605,
      "Ġrepe": 3606,
      "ples": 3607,
      "well": 3608,
      "Ġaltern": 3609,
      "Ġnothing": 3610,
      "Ġforeign": 3611,
      "Ġguitar": 3612,
      "like": 3613,
      "ructed": 3614,
      "Ġarrang": 3615,
      "Ġang": 3616,
      "acher": 3617,
      "Ġoffered": 3618,
      "Ġeastern": 3619,
      "ped": 3620,
      "11": 3621,
      "Ġsense": 3622,
      "ams": 3623,
      "Ġtrue": 3624,
      "Ġdefeated": 3625,
      "illed": 3626,
      "Ġwebs": 3627,
      "ĠJim": 3628,
      "lam": 3629,
      "Ġnation": 3630,
      "ĠBig": 3631,
      "Ġoil": 3632,
      "Ġheav": 3633,
      "Ġstandard": 3634,
      "Ġraised": 3635,
      "inent": 3636,
      "Ġsyn": 3637,
      "Ġsource": 3638,
      "Ġdocument": 3639,
      "Ġword": 3640,
      "Ġmention": 3641,
      "Ġneigh": 3642,
      "ken": 3643,
      "mir": 3644,
      "Ġbirth": 3645,
      "ĠSun": 3646,
      "ĠMore": 3647,
      "ĠCanadian": 3648,
      "Ġprinc": 3649,
      "ĠAfrica": 3650,
      "ĠLake": 3651,
      "Ġfunction": 3652,
      "Ġinitial": 3653,
      "burg": 3654,
      "40": 3655,
      "ellig": 3656,
      "Ġscenes": 3657,
      "Ġappointed": 3658,
      "Ġmarried": 3659,
      "ste": 3660,
      "Ġund": 3661,
      "ĠKn": 3662,
      "Ġcontact": 3663,
      "Ġslight": 3664,
      "etic": 3665,
      "ibly": 3666,
      "Ġkil": 3667,
      "ĠFle": 3668,
      "orps": 3669,
      "Ġinside": 3670,
      "Ġeffort": 3671,
      "----": 3672,
      "Ġconsist": 3673,
      "Ġlocation": 3674,
      "Ġtried": 3675,
      "Ġremoved": 3676,
      "ĠEmp": 3677,
      "ĠSat": 3678,
      "Ġexpand": 3679,
      "Ġpurp": 3680,
      "ĠLat": 3681,
      "ĠLaw": 3682,
      "Ġfinancial": 3683,
      "ĠPost": 3684,
      "uries": 3685,
      "Ġgiving": 3686,
      "ĠEarly": 3687,
      "ĠEdward": 3688,
      "Ġbow": 3689,
      "ĠMont": 3690,
      "abit": 3691,
      "Ġamb": 3692,
      "Ġcaptured": 3693,
      "Ġrespond": 3694,
      "Ġrevealed": 3695,
      "fect": 3696,
      "Ġstars": 3697,
      "Ġ37": 3698,
      "ĠTur": 3699,
      "Ġwithd": 3700,
      "Ġsales": 3701,
      "rol": 3702,
      "iday": 3703,
      "Ġbird": 3704,
      "Ġconstit": 3705,
      "Ġsoldiers": 3706,
      "Ġmill": 3707,
      "Ġago": 3708,
      "ĠBu": 3709,
      "Ġanything": 3710,
      "Ġ1998": 3711,
      "Ġtext": 3712,
      "Ġprep": 3713,
      "Ġsituation": 3714,
      "stant": 3715,
      "Ġ1960": 3716,
      "Ġeducation": 3717,
      "astern": 3718,
      "Ġcho": 3719,
      "Ġ90": 3720,
      "Ġresults": 3721,
      "Ġmiddle": 3722,
      "anch": 3723,
      "ĠCro": 3724,
      "ĠLu": 3725,
      "Ġdepart": 3726,
      "Ġlevels": 3727,
      "gar": 3728,
      "ÃŃ": 3729,
      "ĠCons": 3730,
      "ĠScot": 3731,
      "Ġchief": 3732,
      "Ġdivision": 3733,
      "'re": 3734,
      "AT": 3735,
      "Ġprofessional": 3736,
      "ĠIsrael": 3737,
      "Ġdrug": 3738,
      "lled": 3739,
      "Ġsure": 3740,
      "oura": 3741,
      "Ġfast": 3742,
      "ĠAngeles": 3743,
      "Ġriver": 3744,
      "ĠAmericans": 3745,
      "ĠDel": 3746,
      "Ġdepend": 3747,
      "Ġfleet": 3748,
      "ĠSpe": 3749,
      "Ġsimply": 3750,
      "ĠBoth": 3751,
      "Ġstra": 3752,
      "Ġintens": 3753,
      "Ġ+": 3754,
      "chan": 3755,
      "Ġbuildings": 3756,
      "ĠPacific": 3757,
      "Ġbooks": 3758,
      "bed": 3759,
      "12": 3760,
      "Ġmeant": 3761,
      "Ġlog": 3762,
      "ĠUnder": 3763,
      "ĠMinister": 3764,
      "Ġmorning": 3765,
      "light": 3766,
      "Ġportray": 3767,
      "adium": 3768,
      "ĠCarol": 3769,
      "Ġawarded": 3770,
      "ĠBoy": 3771,
      "Ġprimary": 3772,
      "Ġstories": 3773,
      "force": 3774,
      "Ġdemand": 3775,
      "ĠMiss": 3776,
      "Ġsuffered": 3777,
      "ĠLove": 3778,
      "ĠItal": 3779,
      "Ġreligious": 3780,
      "Ġflag": 3781,
      "teen": 3782,
      "Ġdiss": 3783,
      "Ġapproximately": 3784,
      "Ġassociated": 3785,
      "obal": 3786,
      "Ġprec": 3787,
      "aging": 3788,
      "Ġstrugg": 3789,
      "Ġlaunched": 3790,
      "Ġtraditional": 3791,
      "oses": 3792,
      "Ġscience": 3793,
      "ĠBet": 3794,
      "AS": 3795,
      "Ġflight": 3796,
      "ressive": 3797,
      "Ġpractice": 3798,
      "ĠBack": 3799,
      "ĠOper": 3800,
      "Ġfifth": 3801,
      "oper": 3802,
      "Ġbillion": 3803,
      "itter": 3804,
      "Ġletter": 3805,
      "Ġculture": 3806,
      "ties": 3807,
      "Ã¶": 3808,
      "Ġdom": 3809,
      "Ġmission": 3810,
      "Ġmovie": 3811,
      "He": 3812,
      "Ã¼": 3813,
      "ĠMartin": 3814,
      "Ġthous": 3815,
      "Ġcritical": 3816,
      "Ġcontent": 3817,
      "lor": 3818,
      "Ġtouch": 3819,
      "Ġdiscovered": 3820,
      "Ġwear": 3821,
      "ĠGroup": 3822,
      "Ġfighting": 3823,
      "Ġaudience": 3824,
      "Ġ33": 3825,
      "Ġefforts": 3826,
      "Ġhighly": 3827,
      "Ġpoll": 3828,
      "Ġrout": 3829,
      "Ġsmaller": 3830,
      "Ġmale": 3831,
      "ĠSong": 3832,
      "ĠCentral": 3833,
      "Ġwor": 3834,
      "Ġshowed": 3835,
      "Ġdirectly": 3836,
      "umed": 3837,
      "Ġtracks": 3838,
      "Ġ300": 3839,
      "ĠFinal": 3840,
      "Ġsociety": 3841,
      "Ġpit": 3842,
      "Ġextended": 3843,
      "15": 3844,
      "lo": 3845,
      "omet": 3846,
      "Ġcopies": 3847,
      "ĠTy": 3848,
      "Ġminute": 3849,
      "Ġmoment": 3850,
      "Ġsurpris": 3851,
      "Ġsch": 3852,
      "ĠMel": 3853,
      "ote": 3854,
      "Ġvote": 3855,
      "ĠCamp": 3856,
      "Ġschools": 3857,
      "Ġquality": 3858,
      "ĠHistory": 3859,
      "oly": 3860,
      "Ġoccurred": 3861,
      "Ġqual": 3862,
      "Ġmixed": 3863,
      "ols": 3864,
      "reak": 3865,
      "Ġ75": 3866,
      "Ġbenef": 3867,
      "Ġ185": 3868,
      "Ġactive": 3869,
      "Ġcoin": 3870,
      "olk": 3871,
      "ĠFrancis": 3872,
      "icted": 3873,
      "Ġnuc": 3874,
      "ona": 3875,
      "imin": 3876,
      "itude": 3877,
      "cean": 3878,
      "cle": 3879,
      "ĠVer": 3880,
      "iences": 3881,
      "Ġ1997": 3882,
      "ĠSea": 3883,
      "Ġcontains": 3884,
      "vention": 3885,
      "Ġjournal": 3886,
      "Ġrecords": 3887,
      "Ġhundred": 3888,
      "Ġnames": 3889,
      "Ġpack": 3890,
      "Ġvillage": 3891,
      "As": 3892,
      "ĠFer": 3893,
      "ĠOl": 3894,
      "Ġvalue": 3895,
      "ĠIts": 3896,
      "Ġdeliver": 3897,
      "ĠAnother": 3898,
      "ady": 3899,
      "Ġsem": 3900,
      "Ġspir": 3901,
      "Ġmultiple": 3902,
      "Ġcouple": 3903,
      "Ġess": 3904,
      "Ġparents": 3905,
      "osh": 3906,
      "Ġclosed": 3907,
      "ĠMur": 3908,
      "igade": 3909,
      "Ġlargely": 3910,
      "Ġmeaning": 3911,
      "ĠWood": 3912,
      "Ġrequire": 3913,
      "book": 3914,
      "Ġcontinues": 3915,
      "ĠTown": 3916,
      "ĠFort": 3917,
      "Ġanc": 3918,
      "Ġreports": 3919,
      "ĠObama": 3920,
      "ĠOut": 3921,
      "ka": 3922,
      "ĠBow": 3923,
      "eds": 3924,
      "Ġhands": 3925,
      "Ġstarting": 3926,
      "ares": 3927,
      "Ġcompetition": 3928,
      "iest": 3929,
      "ĠLord": 3930,
      "Ġcm": 3931,
      "ĠMic": 3932,
      "Ġ38": 3933,
      "kin": 3934,
      "Ġlived": 3935,
      "Ġkept": 3936,
      "Ġ00": 3937,
      "ipl": 3938,
      "Ġlyrics": 3939,
      "nds": 3940,
      "Ġrisk": 3941,
      "ĠJose": 3942,
      "Ġnewsp": 3943,
      "Ġgrant": 3944,
      "Ġoffer": 3945,
      "ighter": 3946,
      "ĠOld": 3947,
      "ĠQueen": 3948,
      "Ġcannot": 3949,
      "Ġdouble": 3950,
      "Ġexpect": 3951,
      "ĠCam": 3952,
      "Ġsystems": 3953,
      "Ġhar": 3954,
      "Ġplot": 3955,
      "ĠMatt": 3956,
      "ĠWall": 3957,
      "Ġinstr": 3958,
      "estival": 3959,
      "ĠAtlantic": 3960,
      "Ġseems": 3961,
      "Ġoperation": 3962,
      "ya": 3963,
      "ĠAnt": 3964,
      "Ġrecomm": 3965,
      "yond": 3966,
      "ĠRad": 3967,
      "Ġsett": 3968,
      "Ġproduce": 3969,
      "sych": 3970,
      "Ġcollege": 3971,
      "uty": 3972,
      "Ġselected": 3973,
      "Ġpaid": 3974,
      "Ġseek": 3975,
      "Ġrare": 3976,
      "Ġproducer": 3977,
      "ipped": 3978,
      "icated": 3979,
      "Ġunit": 3980,
      "Ġsearch": 3981,
      "Ġcontrovers": 3982,
      "Ġbehav": 3983,
      "ĠBillboard": 3984,
      "Ġapplic": 3985,
      "Ġbattles": 3986,
      "Ġsubsequently": 3987,
      "Ġexcept": 3988,
      "haps": 3989,
      "ĠPenn": 3990,
      "Ġannual": 3991,
      "ĠMexico": 3992,
      "bury": 3993,
      "omen": 3994,
      "ulations": 3995,
      "ĠKent": 3996,
      "Ġ--": 3997,
      "ĠRepublican": 3998,
      "lict": 3999,
      "Ġuses": 4000,
      "Ġtrain": 4001,
      "Ġranked": 4002,
      "Ġcolon": 4003,
      "Ġnumerous": 4004,
      "eding": 4005,
      "Ġgrowth": 4006,
      "inary": 4007,
      "hips": 4008,
      "stitute": 4009,
      "Ġseparate": 4010,
      "ety": 4011,
      "inton": 4012,
      "Ġrefused": 4013,
      "Ġdemonst": 4014,
      "Ġarchitect": 4015,
      "Ġworkers": 4016,
      "Ã³": 4017,
      "andon": 4018,
      "ĠTour": 4019,
      "Ġdism": 4020,
      "Ġspot": 4021,
      "ysis": 4022,
      "ogue": 4023,
      "Ġspl": 4024,
      "agon": 4025,
      "Ġyards": 4026,
      "Ġinspired": 4027,
      "Ġpath": 4028,
      "Ġmax": 4029,
      "ĠJer": 4030,
      "Ġleaders": 4031,
      "astic": 4032,
      "Ġsomeone": 4033,
      "Ġgas": 4034,
      "ĠChris": 4035,
      "ĠMichigan": 4036,
      "ĠFore": 4037,
      "Ġelected": 4038,
      "road": 4039,
      "Ġbeat": 4040,
      "Ġnotes": 4041,
      "Ġadult": 4042,
      "Ġupper": 4043,
      "ĠSecret": 4044,
      "ĠRail": 4045,
      "Ġcompletely": 4046,
      "ips": 4047,
      "Ġfigure": 4048,
      "orter": 4049,
      "Ġcovered": 4050,
      "Ġcitiz": 4051,
      "fully": 4052,
      "onic": 4053,
      "Ġpiece": 4054,
      "Ġlives": 4055,
      "Ġrat": 4056,
      "Ġattempted": 4057,
      "ada": 4058,
      "cel": 4059,
      "Ġpict": 4060,
      "rowd": 4061,
      "wide": 4062,
      "aland": 4063,
      "Ġartist": 4064,
      "Ġstatement": 4065,
      "oes": 4066,
      "ellow": 4067,
      "Ġ34": 4068,
      "Ġsens": 4069,
      "ĠGar": 4070,
      "ervation": 4071,
      "Ġcer": 4072,
      "itt": 4073,
      "ĠRev": 4074,
      "arters": 4075,
      "ĠIII": 4076,
      "Ġrecently": 4077,
      "Ġdirection": 4078,
      "Ġreferred": 4079,
      "ĠEmpire": 4080,
      "Ġtons": 4081,
      "Ġrule": 4082,
      "Ġattacked": 4083,
      "Ġwebsite": 4084,
      "Ġpresented": 4085,
      "Ġrecommend": 4086,
      "ils": 4087,
      "ĠDar": 4088,
      "Ġrespectively": 4089,
      "60": 4090,
      "ĠNort": 4091,
      "ĠTim": 4092,
      "ĠJones": 4093,
      "Ġgreater": 4094,
      "VD": 4095,
      "ĠCor": 4096,
      "odies": 4097,
      "Ġ1996": 4098,
      "ĠBec": 4099,
      "ĠSever": 4100,
      "ani": 4101,
      "Ġdoll": 4102,
      "ĠCy": 4103,
      "ãĥ": 4104,
      "aped": 4105,
      "Ġ49": 4106,
      "iance": 4107,
      "ĠWal": 4108,
      "ih": 4109,
      "ĠMass": 4110,
      "ĠFin": 4111,
      "Ġdeclared": 4112,
      "Ġ1995": 4113,
      "ero": 4114,
      "Ġearned": 4115,
      "Ġtechnology": 4116,
      "ees": 4117,
      "Ġeverything": 4118,
      "ĠAcad": 4119,
      "ĠService": 4120,
      "ux": 4121,
      "Ġproperty": 4122,
      "uated": 4123,
      "Ġresponsible": 4124,
      "ugh": 4125,
      "Ġpurs": 4126,
      "Ġquite": 4127,
      "ĠFox": 4128,
      "mark": 4129,
      "ĠHaw": 4130,
      "ĠOh": 4131,
      "ansion": 4132,
      "Ġextra": 4133,
      "iqu": 4134,
      "ĠTeam": 4135,
      "Ġrapid": 4136,
      "Ġdamaged": 4137,
      "house": 4138,
      "Ġsister": 4139,
      "Ġsexual": 4140,
      "Ġbud": 4141,
      "Ġdang": 4142,
      "Ġlisted": 4143,
      "ĠMa": 4144,
      "Ġdefeat": 4145,
      "ipal": 4146,
      "ounded": 4147,
      "ports": 4148,
      "ĠTime": 4149,
      "orters": 4150,
      "Ġinterse": 4151,
      "Ġimage": 4152,
      "iced": 4153,
      "Ġpaper": 4154,
      "Ġdoub": 4155,
      "Ġunable": 4156,
      "ication": 4157,
      "Ġwrite": 4158,
      "Ġdetermin": 4159,
      "Ġmis": 4160,
      "Ġfair": 4161,
      "ether": 4162,
      "Ġresulted": 4163,
      "Ġcentre": 4164,
      "Ġarticle": 4165,
      "while": 4166,
      "ĠSand": 4167,
      "Ġactions": 4168,
      "Ġchallen": 4169,
      "ĠViet": 4170,
      "ita": 4171,
      "ĠHighway": 4172,
      "Ġvariety": 4173,
      "Ġmarriage": 4174,
      "ĠItalian": 4175,
      "isher": 4176,
      "load": 4177,
      "ĠStep": 4178,
      "Ġlif": 4179,
      "Ġadministration": 4180,
      "ĠSir": 4181,
      "ims": 4182,
      "la": 4183,
      "writ": 4184,
      "win": 4185,
      "Ġsinger": 4186,
      "Ġreform": 4187,
      "ĠCommit": 4188,
      "utch": 4189,
      "ER": 4190,
      "ĠTre": 4191,
      "Ġcas": 4192,
      "isation": 4193,
      "Ġpun": 4194,
      "Ġdog": 4195,
      "Ġmetal": 4196,
      "year": 4197,
      "Ġreduced": 4198,
      "ĠSund": 4199,
      "Ġ184": 4200,
      "Ġmanaged": 4201,
      "Ġorganization": 4202,
      "ĠSur": 4203,
      "Ġabandon": 4204,
      "Ġtell": 4205,
      "Ġclaims": 4206,
      "gl": 4207,
      "iling": 4208,
      "ĠBecause": 4209,
      "Ġcomposed": 4210,
      "Ġpowerful": 4211,
      "ĠBatt": 4212,
      "ĠEr": 4213,
      "ĠTheir": 4214,
      "Ġmatches": 4215,
      "fl": 4216,
      "Ġmedical": 4217,
      "sp": 4218,
      "enant": 4219,
      "Ġplatform": 4220,
      "ĠChe": 4221,
      "Ġheard": 4222,
      "Ġdropped": 4223,
      "Ġtheat": 4224,
      "Ġcontem": 4225,
      "Ġpair": 4226,
      "Ġallowing": 4227,
      "Ġworth": 4228,
      "mission": 4229,
      "ĠCapt": 4230,
      "ĠCap": 4231,
      "Ġsoft": 4232,
      "Ġ1950": 4233,
      "ĠIS": 4234,
      "aling": 4235,
      "Ġrein": 4236,
      "Ġbecomes": 4237,
      "Ġdise": 4238,
      "Ġedit": 4239,
      "Ġtraffic": 4240,
      "ledge": 4241,
      "Ġroy": 4242,
      "Ġcharge": 4243,
      "kn": 4244,
      "Ġpeace": 4245,
      "MS": 4246,
      "Ġded": 4247,
      "rier": 4248,
      "istics": 4249,
      "Ġspeech": 4250,
      "ĠProdu": 4251,
      "zy": 4252,
      "Ġpositions": 4253,
      "Ġindependent": 4254,
      "ĠCath": 4255,
      "13": 4256,
      "Ġfear": 4257,
      "ĠAfrican": 4258,
      "ĠBob": 4259,
      "Ġstudent": 4260,
      "Ġcelebr": 4261,
      "ĠDire": 4262,
      "If": 4263,
      "Ġtask": 4264,
      "ĠSenate": 4265,
      "ufact": 4266,
      "ĠDVD": 4267,
      "bridge": 4268,
      "ients": 4269,
      "ĠStan": 4270,
      "Ġalone": 4271,
      "Ġahead": 4272,
      "ĠCommission": 4273,
      "ĠSum": 4274,
      "Ġcommented": 4275,
      "Ġdu": 4276,
      "ĠMod": 4277,
      "iring": 4278,
      "Ġinstit": 4279,
      "ĠArch": 4280,
      "Ġsources": 4281,
      "Ġsaf": 4282,
      "ette": 4283,
      "ĠHel": 4284,
      "Ġpresence": 4285,
      "Ġforest": 4286,
      "ota": 4287,
      "ĠClinton": 4288,
      "Ġactivity": 4289,
      "Ġpan": 4290,
      "Ġcalling": 4291,
      "oti": 4292,
      "Ġcollect": 4293,
      "80": 4294,
      "Ġonto": 4295,
      "ĠPre": 4296,
      "ĠLong": 4297,
      "claim": 4298,
      "Ġ1994": 4299,
      "ĠSar": 4300,
      "ĠMajor": 4301,
      "Ġhope": 4302,
      "ãģ": 4303,
      "olf": 4304,
      "Ġadvance": 4305,
      "ĠCare": 4306,
      "antasy": 4307,
      "Ġelectric": 4308,
      "Ġnearby": 4309,
      "Ġcolor": 4310,
      "Ġhor": 4311,
      "rical": 4312,
      "rate": 4313,
      "Ġgreen": 4314,
      "Ġexact": 4315,
      "Ġassigned": 4316,
      "ables": 4317,
      "arian": 4318,
      "Ġmechan": 4319,
      "aine": 4320,
      "ĠJeff": 4321,
      "osen": 4322,
      "Ġcombat": 4323,
      "Ġcorn": 4324,
      "gal": 4325,
      "ĠBost": 4326,
      "ĠAnn": 4327,
      "Ġemot": 4328,
      "Ġavoid": 4329,
      "ĠCommittee": 4330,
      "pass": 4331,
      "ĠOx": 4332,
      "Ġslightly": 4333,
      "Ġcrowd": 4334,
      "ding": 4335,
      "Ġsn": 4336,
      "Ġexecutive": 4337,
      "Ġtoward": 4338,
      "Ġsimple": 4339,
      "Ġphysical": 4340,
      "Äĥ": 4341,
      "ĠCle": 4342,
      "Ġtheme": 4343,
      "Ġice": 4344,
      "ĠWind": 4345,
      "uit": 4346,
      "ancy": 4347,
      "Ġrelatively": 4348,
      "time": 4349,
      "ivity": 4350,
      "ĠLike": 4351,
      "tered": 4352,
      "Ġtrial": 4353,
      "annel": 4354,
      "ĠWilliams": 4355,
      "Ġcheck": 4356,
      "ĠColumb": 4357,
      "Ġcities": 4358,
      "ĠTest": 4359,
      "ocked": 4360,
      "Ġdefense": 4361,
      "Ġir": 4362,
      "oles": 4363,
      "akers": 4364,
      "Ġtheory": 4365,
      "ĠGreek": 4366,
      "gypt": 4367,
      "gest": 4368,
      "Ġwing": 4369,
      "ĠSil": 4370,
      "Ġthr": 4371,
      "ented": 4372,
      "Ġserve": 4373,
      "25": 4374,
      "Ġ1992": 4375,
      "Ġsettle": 4376,
      "Ġspread": 4377,
      "bon": 4378,
      "Ġscale": 4379,
      "Ġapparent": 4380,
      "stein": 4381,
      "Ġattended": 4382,
      "Ġresist": 4383,
      "Ġdefin": 4384,
      "Ġburn": 4385,
      "Ġforms": 4386,
      "Ġperformances": 4387,
      "ĠBBC": 4388,
      "ini": 4389,
      "umber": 4390,
      "ube": 4391,
      "ĠKenn": 4392,
      "Ġcurrently": 4393,
      "Ġcamer": 4394,
      "Ġonline": 4395,
      "ĠGeorg": 4396,
      "ĠSquadron": 4397,
      "Ġconducted": 4398,
      "Ġexplained": 4399,
      "ĠManc": 4400,
      "ĠDou": 4401,
      "Ġbackground": 4402,
      "Ġstudies": 4403,
      "Ġbeyond": 4404,
      "Ġ39": 4405,
      "Ġans": 4406,
      "yer": 4407,
      "okes": 4408,
      "Ġcommander": 4409,
      "Ġbegins": 4410,
      "illa": 4411,
      "ĠScotland": 4412,
      "ners": 4413,
      "imb": 4414,
      "istry": 4415,
      "ĠTri": 4416,
      "Ġplays": 4417,
      "Ġaccepted": 4418,
      "Ġstrength": 4419,
      "Ġagg": 4420,
      "Ġconfirmed": 4421,
      "Ġtur": 4422,
      "rative": 4423,
      "ĠArab": 4424,
      "Ġweapons": 4425,
      "omers": 4426,
      "ĠFoot": 4427,
      "Ġresidents": 4428,
      "Ġcollection": 4429,
      "Ġgrowing": 4430,
      "Ġconstructed": 4431,
      "ĠSeveral": 4432,
      "Ġborder": 4433,
      "ĠEgypt": 4434,
      "Ġselling": 4435,
      "ushed": 4436,
      "Ġsenior": 4437,
      "Ġsides": 4438,
      "Ġhospital": 4439,
      "ĠCrit": 4440,
      "Ġhero": 4441,
      "Ġreject": 4442,
      "ĠRussia": 4443,
      "Ġwild": 4444,
      "âĢ¦": 4445,
      "ĠAut": 4446,
      "onn": 4447,
      "shire": 4448,
      "ĠCorps": 4449,
      "ĠFour": 4450,
      "Ġblue": 4451,
      "Ġneeds": 4452,
      "Ġsymb": 4453,
      "alle": 4454,
      "Ġways": 4455,
      "Ġsle": 4456,
      "ĠZealand": 4457,
      "ĠBook": 4458,
      "Ġconflict": 4459,
      "hy": 4460,
      "Ġchance": 4461,
      "AR": 4462,
      "Ġment": 4463,
      "ĠIre": 4464,
      "Ġrough": 4465,
      "ĠSociety": 4466,
      "ection": 4467,
      "Ġsche": 4468,
      "ibrary": 4469,
      "ersey": 4470,
      "Ġadj": 4471,
      "Ġdrum": 4472,
      "Ġrid": 4473,
      "Ġattempts": 4474,
      "Ġimag": 4475,
      "fort": 4476,
      "Ġtourn": 4477,
      "Ġeth": 4478,
      "Ġperfect": 4479,
      "Ġresulting": 4480,
      "known": 4481,
      "ĠSol": 4482,
      "ĠDen": 4483,
      "Ġanimals": 4484,
      "Ġtwenty": 4485,
      "resh": 4486,
      "Ġhouses": 4487,
      "ĠWales": 4488,
      "17": 4489,
      "Ġ180": 4490,
      "iverse": 4491,
      "Ġconnect": 4492,
      "Ġ400": 4493,
      "Ġedition": 4494,
      "Ġdepression": 4495,
      "Ġconcent": 4496,
      "Ġroyal": 4497,
      "Ġschol": 4498,
      "Ġconvers": 4499,
      "Ġintellig": 4500,
      "Ġlaunch": 4501,
      "14": 4502,
      "Ġgoes": 4503,
      "more": 4504,
      "onents": 4505,
      "Ġchap": 4506,
      "Ġending": 4507,
      "Ġsuppl": 4508,
      "Ġcode": 4509,
      "Ġseconds": 4510,
      "Ġhus": 4511,
      "ĠGra": 4512,
      "ĠOs": 4513,
      "Ġopin": 4514,
      "ĠBoston": 4515,
      "ĠOf": 4516,
      "Ġknew": 4517,
      "ĠEven": 4518,
      "ieut": 4519,
      "Ġrules": 4520,
      "18": 4521,
      "HL": 4522,
      "mond": 4523,
      "Ġeconomy": 4524,
      "Ġtreatment": 4525,
      "Ġbudget": 4526,
      "Ġbal": 4527,
      "There": 4528,
      "Ġdistance": 4529,
      "Ġultimately": 4530,
      "ĠTod": 4531,
      "Ġcerem": 4532,
      "za": 4533,
      "ĠChief": 4534,
      "Ġaddress": 4535,
      "antly": 4536,
      "ĠStone": 4537,
      "peror": 4538,
      "awn": 4539,
      "Ġbul": 4540,
      "ĠRy": 4541,
      "ĠWin": 4542,
      "ours": 4543,
      "edom": 4544,
      "iminal": 4545,
      "Ġsevent": 4546,
      "bit": 4547,
      "Ġ1930": 4548,
      "Ġbroke": 4549,
      "Ġvocals": 4550,
      "Ġ1991": 4551,
      "set": 4552,
      "Ġut": 4553,
      "track": 4554,
      "aming": 4555,
      "Ġ1993": 4556,
      "16": 4557,
      "Ġinterp": 4558,
      "Ġ1940": 4559,
      "Ġera": 4560,
      "Ġopportunity": 4561,
      "Ġmob": 4562,
      "room": 4563,
      "arts": 4564,
      "ĠLatin": 4565,
      "Ġswe": 4566,
      "ronic": 4567,
      "Ġcell": 4568,
      "ĠRom": 4569,
      "ĠThree": 4570,
      "Ġmanufact": 4571,
      "ittle": 4572,
      "ĠOp": 4573,
      "Ġexhib": 4574,
      "Ġgar": 4575,
      "Ġtells": 4576,
      "mas": 4577,
      "Ġfloor": 4578,
      "Ġtable": 4579,
      "Ġprice": 4580,
      "ĠGames": 4581,
      "ĠLiber": 4582,
      "Ġconcert": 4583,
      "Ġfix": 4584,
      "Ġunf": 4585,
      "Ġhorse": 4586,
      "anes": 4587,
      "bur": 4588,
      "Ġtrou": 4589,
      "Ġchampionship": 4590,
      "Ġacting": 4591,
      "ala": 4592,
      "ĠSouthern": 4593,
      "ĠPrince": 4594,
      "Ġpropos": 4595,
      "Ġpattern": 4596,
      "Ġthick": 4597,
      "Ġ47": 4598,
      "Ġindividuals": 4599,
      "Ġcontrast": 4600,
      "Ġagreement": 4601,
      "Ġseasons": 4602,
      "Ġsust": 4603,
      "Ġdrive": 4604,
      "ĠSwed": 4605,
      "eway": 4606,
      "Ġencoun": 4607,
      "Ġcomputer": 4608,
      "pects": 4609,
      "Ġwinter": 4610,
      "ĠBre": 4611,
      "usion": 4612,
      "Ġreceive": 4613,
      "Ġwidely": 4614,
      "itan": 4615,
      "ager": 4616,
      "Ġchem": 4617,
      "Ġmachine": 4618,
      "BA": 4619,
      "ĠBC": 4620,
      "Ġsort": 4621,
      "Ġinte": 4622,
      "Ġequip": 4623,
      "Ġcollabor": 4624,
      "ingu": 4625,
      "Äĩ": 4626,
      "ĠLee": 4627,
      "Ġeveryone": 4628,
      "ĠStephen": 4629,
      "Ġtransl": 4630,
      "Ġmurder": 4631,
      "udd": 4632,
      "ĠParis": 4633,
      "Ġet": 4634,
      "IS": 4635,
      "Ġfully": 4636,
      "ĠJoe": 4637,
      "oto": 4638,
      "ĠParliament": 4639,
      "Ġassault": 4640,
      "olved": 4641,
      "Ġ44": 4642,
      "Ġisn": 4643,
      "Ġconne": 4644,
      "Ġobserved": 4645,
      "acity": 4646,
      "ĠMadonna": 4647,
      "Ġpage": 4648,
      "Ġ183": 4649,
      "Ġchoice": 4650,
      "Ġowned": 4651,
      "ieutenant": 4652,
      "And": 4653,
      "ĠVan": 4654,
      "ĠItaly": 4655,
      "ceeded": 4656,
      "Ġenemy": 4657,
      "Ġolder": 4658,
      "Ġfan": 4659,
      "Ġbound": 4660,
      "Ġnecessary": 4661,
      "miral": 4662,
      "ĠSpec": 4663,
      "Ġstating": 4664,
      "Ġprin": 4665,
      "ĠBefore": 4666,
      "Ġextrem": 4667,
      "ĠCross": 4668,
      "Åį": 4669,
      "Ġrob": 4670,
      "Ġincorpor": 4671,
      "Ġinches": 4672,
      "Ġglobal": 4673,
      "Ġdistinct": 4674,
      "ĠManchester": 4675,
      "ĠSub": 4676,
      "Ġ179": 4677,
      "gu": 4678,
      "Ġmarked": 4679,
      "iny": 4680,
      "Ġidentified": 4681,
      "ĠIll": 4682,
      "ĠFe": 4683,
      "ĠEll": 4684,
      "ĠRecords": 4685,
      "ĠSk": 4686,
      "Ġweight": 4687,
      "ĠInst": 4688,
      "Ġwrong": 4689,
      "ilies": 4690,
      "Ġgives": 4691,
      "ĠAdd": 4692,
      "Ġsquare": 4693,
      "ĠJoseph": 4694,
      "Ġkick": 4695,
      "Ġscoring": 4696,
      "anna": 4697,
      "Ġviewers": 4698,
      "ĠAcademy": 4699,
      "ES": 4700,
      "ishop": 4701,
      "Ġhun": 4702,
      "ĠWork": 4703,
      "perial": 4704,
      "Ġ42": 4705,
      "ingly": 4706,
      "ĠCommun": 4707,
      "Ġgreatest": 4708,
      "illery": 4709,
      "Ġbatter": 4710,
      "Ġremark": 4711,
      "ĠVietn": 4712,
      "Ġmel": 4713,
      "ev": 4714,
      "Ġcondition": 4715,
      "Ġmeasure": 4716,
      "Ġconcluded": 4717,
      "ship": 4718,
      "unction": 4719,
      "Ġadvant": 4720,
      "Ġprogress": 4721,
      "ĠMiddle": 4722,
      "ĠDef": 4723,
      "Ġelse": 4724,
      "Ġachieve": 4725,
      "itable": 4726,
      "ograp": 4727,
      "Ġconsum": 4728,
      "Ġopposition": 4729,
      "Ġcombined": 4730,
      "Ġprimarily": 4731,
      "Ġpsych": 4732,
      "phy": 4733,
      "uman": 4734,
      "Ġartists": 4735,
      "Ġexperiment": 4736,
      "enc": 4737,
      "Ġwit": 4738,
      "ãĤ": 4739,
      "een": 4740,
      "ifying": 4741,
      "Ġactivities": 4742,
      "ii": 4743,
      "ĠForm": 4744,
      "Ġnuclear": 4745,
      "ĠPan": 4746,
      "ading": 4747,
      "clusion": 4748,
      "Ġcompos": 4749,
      "ĠClass": 4750,
      "Ġfa": 4751,
      "uses": 4752,
      "roll": 4753,
      "opp": 4754,
      "Ġsought": 4755,
      "ĠNow": 4756,
      "Ġrating": 4757,
      "Ġstruck": 4758,
      "oration": 4759,
      "ĠBrad": 4760,
      "Ġcreating": 4761,
      "anta": 4762,
      "Ġtend": 4763,
      "inet": 4764,
      "ĠPet": 4765,
      "stone": 4766,
      "Ġ48": 4767,
      "ylvan": 4768,
      "Ġdraft": 4769,
      "igr": 4770,
      "ĠBat": 4771,
      "tty": 4772,
      "Ġur": 4773,
      "ĠArm": 4774,
      "ĠMuslim": 4775,
      "Ġdance": 4776,
      "Ġfounded": 4777,
      "Ġbasis": 4778,
      "ĠFar": 4779,
      "Ġalongside": 4780,
      "come": 4781,
      "ĠCarolina": 4782,
      "Ġseg": 4783,
      "ĠSeries": 4784,
      "estic": 4785,
      "Ġideas": 4786,
      "Ġequipment": 4787,
      "Ġwriters": 4788,
      "Ġnormal": 4789,
      "Ġroll": 4790,
      "Ġcateg": 4791,
      "chers": 4792,
      "pping": 4793,
      "ĠDemocratic": 4794,
      "Ġcoal": 4795,
      "town": 4796,
      "ĠLuc": 4797,
      "Ġfigures": 4798,
      "Ġfired": 4799,
      "Ġnegoti": 4800,
      "FL": 4801,
      "ĠFred": 4802,
      "Ġportion": 4803,
      "Ġhusband": 4804,
      "cers": 4805,
      "ĠKar": 4806,
      "Ġexpressed": 4807,
      "omy": 4808,
      "Ġplaces": 4809,
      "Ġcompar": 4810,
      "Ġactor": 4811,
      "Ġwasn": 4812,
      "ĠConf": 4813,
      "Ġmainly": 4814,
      "Ġcausing": 4815,
      "Ġstraight": 4816,
      "emic": 4817,
      "zil": 4818,
      "Ġenter": 4819,
      "istan": 4820,
      "Ġdistrict": 4821,
      "Ġload": 4822,
      "ĠGood": 4823,
      "Ġalle": 4824,
      "Ġcalls": 4825,
      "Ġargued": 4826,
      "ĠMike": 4827,
      "eller": 4828,
      "Ġpassing": 4829,
      "Ġpieces": 4830,
      "Ġsubs": 4831,
      "ayer": 4832,
      "ĠLife": 4833,
      "Ġeye": 4834,
      "ĠWars": 4835,
      "Ġoffensive": 4836,
      "ĠIreland": 4837,
      "onent": 4838,
      "ĠHung": 4839,
      "Ġconver": 4840,
      "Ġcaptain": 4841,
      "Ġyard": 4842,
      "Ġconference": 4843,
      "Ġauthorities": 4844,
      "Ġmaximum": 4845,
      "Ġaffected": 4846,
      "Ġtransferred": 4847,
      "uled": 4848,
      "thur": 4849,
      "Ġfeaturing": 4850,
      "Ġbott": 4851,
      "ĠHy": 4852,
      "Ġweather": 4853,
      "Ġsuc": 4854,
      "Ġearth": 4855,
      "Ġanyone": 4856,
      "Ġfarm": 4857,
      "Ġcitizens": 4858,
      "ĠCreek": 4859,
      "ĠWay": 4860,
      "Ġperhaps": 4861,
      "ĠLeg": 4862,
      "ĠSunday": 4863,
      "TV": 4864,
      "Ġincident": 4865,
      "och": 4866,
      "Ġiron": 4867,
      "Ġtitled": 4868,
      "eter": 4869,
      "put": 4870,
      "ĠOxford": 4871,
      "ockey": 4872,
      "ĠFre": 4873,
      "stitution": 4874,
      "aby": 4875,
      "Ġplanet": 4876,
      "rog": 4877,
      "Ġchair": 4878,
      "Ġinjury": 4879,
      "Ġ150": 4880,
      "On": 4881,
      "inem": 4882,
      "ĠJul": 4883,
      "onder": 4884,
      "Ġcard": 4885,
      "quarters": 4886,
      "Ġdrop": 4887,
      "Ġ55": 4888,
      "Ġeditor": 4889,
      "Ġdivided": 4890,
      "Ġfat": 4891,
      "Ġbeaut": 4892,
      "uls": 4893,
      "Ġtherefore": 4894,
      "ĠAv": 4895,
      "Ġupd": 4896,
      "Ġshooting": 4897,
      "rid": 4898,
      "izes": 4899,
      "Ġmessage": 4900,
      "Ġanalysis": 4901,
      "Ġmetres": 4902,
      "pson": 4903,
      "ĠMax": 4904,
      "ulate": 4905,
      "Ġtwice": 4906,
      "ĠHal": 4907,
      "Ġstore": 4908,
      "Ġterror": 4909,
      "ĠCarl": 4910,
      "ĠDistrict": 4911,
      "Ġcastle": 4912,
      "ĠEntertain": 4913,
      "Ġsetting": 4914,
      "Ġversions": 4915,
      "ĠOtt": 4916,
      "arden": 4917,
      "Ġeyes": 4918,
      "Ġcert": 4919,
      "add": 4920,
      "Ġgraph": 4921,
      "AF": 4922,
      "Ġdegree": 4923,
      "Ġinteract": 4924,
      "Ġmist": 4925,
      "Ġlosing": 4926,
      "Ġauthority": 4927,
      "urban": 4928,
      "iano": 4929,
      "TC": 4930,
      "ruit": 4931,
      "Ġfuel": 4932,
      "Ġhair": 4933,
      "Ġprefer": 4934,
      "Ġpilot": 4935,
      "rect": 4936,
      "Ġunique": 4937,
      "âĢĶâĢĶâĢĶâĢĶ": 4938,
      "ĠShow": 4939,
      "Ġcounty": 4940,
      "Ġproved": 4941,
      "ĠBridge": 4942,
      "Ġvocal": 4943,
      "Ġpal": 4944,
      "ĠUs": 4945,
      "agn": 4946,
      "Ġguard": 4947,
      "iable": 4948,
      "ĠBus": 4949,
      "phas": 4950,
      "ĠMen": 4951,
      "Ġtun": 4952,
      "Ġcyclone": 4953,
      "hew": 4954,
      "ĠCaptain": 4955,
      "Ġinch": 4956,
      "ĠVol": 4957,
      "Ġresc": 4958,
      "Ġgained": 4959,
      "ĠLittle": 4960,
      "Ġreasons": 4961,
      "Ġlic": 4962,
      "ĠRay": 4963,
      "Ġheavily": 4964,
      "Ġdyn": 4965,
      "ĠLive": 4966,
      "rad": 4967,
      "Ġmic": 4968,
      "Ġlat": 4969,
      "ĠLand": 4970,
      "ĠJon": 4971,
      "Ġfirm": 4972,
      "Ġ43": 4973,
      "Ġprepar": 4974,
      "adel": 4975,
      "ĠHurricane": 4976,
      "body": 4977,
      "iated": 4978,
      "lines": 4979,
      "Ġleadership": 4980,
      "Ġquestions": 4981,
      "Ġ64": 4982,
      "Ġring": 4983,
      "ption": 4984,
      "Ġ52": 4985,
      "Ġpeaked": 4986,
      "Ġwaters": 4987,
      "Ġmanagement": 4988,
      "Ġpremi": 4989,
      "ĠEntertainment": 4990,
      "Ġgrew": 4991,
      "Ġaccident": 4992,
      "Ġdisco": 4993,
      "Ġmaster": 4994,
      "Ġstreet": 4995,
      "ĠInfantry": 4996,
      "Ġexperien": 4997,
      "Ġtail": 4998,
      "ĠThough": 4999,
      ".,": 5000,
      "oty": 5001,
      "ĠGuard": 5002,
      "mans": 5003,
      "ĠDun": 5004,
      "Ġ65": 5005,
      "Ġ<": 5006,
      "Ġpet": 5007,
      "Ġappl": 5008,
      "Ġshortly": 5009,
      "Ġaw": 5010,
      "ĠMem": 5011,
      "ĠInstitute": 5012,
      "Ġadvert": 5013,
      "ĠNin": 5014,
      "Ġspirit": 5015,
      "AN": 5016,
      "Ġhall": 5017,
      "Ġfailure": 5018,
      "ĠCharl": 5019,
      "Ġeasy": 5020,
      "ylvania": 5021,
      "pool": 5022,
      "Ġfamilies": 5023,
      "Ġkilling": 5024,
      "Ġuniversity": 5025,
      "Ġ1942": 5026,
      "Ġlov": 5027,
      "Ġreference": 5028,
      "ĠMuseum": 5029,
      "Ġnegative": 5030,
      "Ġsched": 5031,
      "ĠGovernment": 5032,
      "Ġsout": 5033,
      "Ġmut": 5034,
      "ucky": 5035,
      "ĠAre": 5036,
      "ias": 5037,
      "fficient": 5038,
      "Ġstrike": 5039,
      "oured": 5040,
      "Ġviolence": 5041,
      "iro": 5042,
      "ĠYoung": 5043,
      "Ġvisual": 5044,
      "ĠSa": 5045,
      "Ġreaching": 5046,
      "You": 5047,
      "ĠRam": 5048,
      "asket": 5049,
      "Ġrepeated": 5050,
      "Ġreturning": 5051,
      "under": 5052,
      "Ġtypically": 5053,
      "Ġrac": 5054,
      "Ġprojects": 5055,
      "ĠHolly": 5056,
      "ĠAvenue": 5057,
      "ĠIslam": 5058,
      "Ġsupply": 5059,
      "Ġ1944": 5060,
      "Ġtournament": 5061,
      "entially": 5062,
      "ĠLine": 5063,
      "Ġlabor": 5064,
      "ĠLight": 5065,
      "Ġinvestigation": 5066,
      "ĠHistor": 5067,
      "Ġconduct": 5068,
      "igg": 5069,
      "Ġeffective": 5070,
      "ĠDet": 5071,
      "resp": 5072,
      "Ġphil": 5073,
      "ĠHarrison": 5074,
      "uct": 5075,
      "Ġign": 5076,
      "Ġfellow": 5077,
      "war": 5078,
      "Ġcapture": 5079,
      "Ġinvasion": 5080,
      "Ġmagn": 5081,
      "Ġcapacity": 5082,
      "ĠMat": 5083,
      "ropri": 5084,
      "Ġrequest": 5085,
      "Ġlaws": 5086,
      "ĠWeek": 5087,
      "lers": 5088,
      "Ġgod": 5089,
      "Ġtermin": 5090,
      "Ġserving": 5091,
      "chest": 5092,
      "Ġgets": 5093,
      "anda": 5094,
      "ocks": 5095,
      "Ġdesignated": 5096,
      "Ġhomes": 5097,
      "ĠRod": 5098,
      "illing": 5099,
      "Ġsafety": 5100,
      "ampion": 5101,
      "Ġ1989": 5102,
      "abeth": 5103,
      "Ġvess": 5104,
      "ban": 5105,
      "ĠPop": 5106,
      "ĠDutch": 5107,
      "Ġdelay": 5108,
      "ĠJud": 5109,
      "Ġcry": 5110,
      "ĠTay": 5111,
      "Ġthrow": 5112,
      "osaur": 5113,
      "ĠAdmiral": 5114,
      "Ġsixth": 5115,
      "Ġprominent": 5116,
      "Ġrang": 5117,
      "Ġherself": 5118,
      "Ġsave": 5119,
      "ĠPeople": 5120,
      "inson": 5121,
      "Ġstone": 5122,
      "Ġaim": 5123,
      "elve": 5124,
      "Ġliber": 5125,
      "ĠOffice": 5126,
      "yon": 5127,
      "velopment": 5128,
      "Ġhyd": 5129,
      "acement": 5130,
      "Ġeasily": 5131,
      "Ġpromoted": 5132,
      "ĠTop": 5133,
      "Ġpretty": 5134,
      "ĠSystem": 5135,
      "ĠFootball": 5136,
      "Ġspect": 5137,
      "ĠInde": 5138,
      "ĠOrig": 5139,
      "ĠBrazil": 5140,
      "ĠCivil": 5141,
      "erc": 5142,
      "ications": 5143,
      "ĠPublic": 5144,
      "Ġ1920": 5145,
      "Ġ46": 5146,
      "Ġdisease": 5147,
      "Ġarms": 5148,
      "Ġgovernor": 5149,
      "Ġsplit": 5150,
      "Ġrise": 5151,
      "Ġopposed": 5152,
      "Ġofficially": 5153,
      "Ġtim": 5154,
      "essions": 5155,
      "Ġdetails": 5156,
      "Ġox": 5157,
      "risis": 5158,
      "Ġtrees": 5159,
      "rat": 5160,
      "isters": 5161,
      "Ġprompt": 5162,
      "orped": 5163,
      "Ġcool": 5164,
      "'ve": 5165,
      "ĠLew": 5166,
      "ĠNorthern": 5167,
      "Ġweak": 5168,
      "ĠBank": 5169,
      "Ġconsec": 5170,
      "ĠDaniel": 5171,
      "ĠHome": 5172,
      "Ġworldwide": 5173,
      "Ġstrik": 5174,
      "Ġdismiss": 5175,
      "Ġtrust": 5176,
      "Ġprovides": 5177,
      "ĠEliz": 5178,
      "ĠGal": 5179,
      "Ġjump": 5180,
      "Ġfresh": 5181,
      "Ġleaves": 5182,
      "apers": 5183,
      "ĠSup": 5184,
      "Ġexisting": 5185,
      "Ġextend": 5186,
      "Ġunp": 5187,
      "Ġdigital": 5188,
      "ĠCatholic": 5189,
      "uous": 5190,
      "Ġcaught": 5191,
      "Ġhuge": 5192,
      "ĠDev": 5193,
      "Ġvisited": 5194,
      "Ġcopy": 5195,
      "irty": 5196,
      "ĠPress": 5197,
      "Ġweaken": 5198,
      "Ġsports": 5199,
      "ĠSecretary": 5200,
      "ĠFam": 5201,
      "Ġacad": 5202,
      "Ġhappened": 5203,
      "Ġalbums": 5204,
      "ĠHard": 5205,
      "ĠNorm": 5206,
      "Ġends": 5207,
      "Ġrepresented": 5208,
      "Ġpurpose": 5209,
      "Ġones": 5210,
      "tar": 5211,
      "unch": 5212,
      "Ġpros": 5213,
      "kins": 5214,
      "ĠTem": 5215,
      "Ġescape": 5216,
      "anwhile": 5217,
      "ĠMu": 5218,
      "ĠRog": 5219,
      "Ġsubsequent": 5220,
      "Ġcommittee": 5221,
      "Ġlabel": 5222,
      "Ġtypes": 5223,
      "BI": 5224,
      "Ġunknown": 5225,
      "Ġappearances": 5226,
      "Ġlaid": 5227,
      "AC": 5228,
      "Ġresour": 5229,
      "Ġhabit": 5230,
      "aga": 5231,
      "box": 5232,
      "Ġfollows": 5233,
      "Ġdescript": 5234,
      "Ġentirely": 5235,
      "Ġhear": 5236,
      "ĠRoll": 5237,
      "Ġspeak": 5238,
      "Ġoccasion": 5239,
      "Ġnewspaper": 5240,
      "ĠVictoria": 5241,
      "Ġaware": 5242,
      "oted": 5243,
      "mosp": 5244,
      "âĢĵ": 5245,
      "Ġfamous": 5246,
      "Ġterritory": 5247,
      "Ġadvantage": 5248,
      "Ġvac": 5249,
      "ancing": 5250,
      "Ġstanding": 5251,
      "ĠValley": 5252,
      "Ġteach": 5253,
      "Ġsurrounding": 5254,
      "ĠPenns": 5255,
      "ighth": 5256,
      "ĠSaint": 5257,
      "Ġpossibly": 5258,
      "ricult": 5259,
      "Ġcontain": 5260,
      "Ġbuy": 5261,
      "orses": 5262,
      "Ġexpress": 5263,
      "Ġdebate": 5264,
      "ĠBattalion": 5265,
      "Ġchose": 5266,
      "Ġexpansion": 5267,
      "Ġallows": 5268,
      "ranch": 5269,
      "rec": 5270,
      "ĠEastern": 5271,
      "ym": 5272,
      "iven": 5273,
      "aved": 5274,
      "Ġpolitics": 5275,
      "Ġinfluenced": 5276,
      "Ġast": 5277,
      "Ġorders": 5278,
      "stream": 5279,
      "ounger": 5280,
      "ĠCroat": 5281,
      "ĠField": 5282,
      "Ġcolumn": 5283,
      "Ġcouncil": 5284,
      "Ġdefensive": 5285,
      "Ġdeploy": 5286,
      "Ġ1941": 5287,
      "Ġknowledge": 5288,
      "Ġprotection": 5289,
      "Ġattrib": 5290,
      "ervative": 5291,
      "Ġcriticism": 5292,
      "zen": 5293,
      "Ġplants": 5294,
      "gn": 5295,
      "Ġbroken": 5296,
      "Ġnominated": 5297,
      "Ġnative": 5298,
      "embly": 5299,
      "wise": 5300,
      "eless": 5301,
      "ĠThrough": 5302,
      "Ġsuggests": 5303,
      "Ġimplement": 5304,
      "Ġneighbor": 5305,
      "Ġinnings": 5306,
      "Ġspring": 5307,
      "Ġcriminal": 5308,
      "Ġincome": 5309,
      "Ġsurre": 5310,
      "Ġcriticized": 5311,
      "Ġcars": 5312,
      "Ġnortheast": 5313,
      "ĠÐ": 5314,
      "imal": 5315,
      "acks": 5316,
      "Ġfaced": 5317,
      "Ġ1945": 5318,
      "Ġelement": 5319,
      "Ġcandidate": 5320,
      "Ġproducts": 5321,
      "Ġmaintained": 5322,
      "ĠDam": 5323,
      "Ġholding": 5324,
      "ĠWilson": 5325,
      "Ġclimate": 5326,
      "Ġencoura": 5327,
      "Ġnaval": 5328,
      "Ġreading": 5329,
      "ĠMarsh": 5330,
      "earch": 5331,
      "vest": 5332,
      "ĠHere": 5333,
      "Ġvo": 5334,
      "Ġtorped": 5335,
      "Ġcosts": 5336,
      "Ġmentioned": 5337,
      "Ġbrand": 5338,
      "ĠRegiment": 5339,
      "RE": 5340,
      "ĠBell": 5341,
      "Ġproviding": 5342,
      "FA": 5343,
      "Ġshared": 5344,
      "Ġemphas": 5345,
      "ĠAndrew": 5346,
      "Ġthousands": 5347,
      "ĠEach": 5348,
      "ima": 5349,
      "ras": 5350,
      "Ġshell": 5351,
      "ĠAtt": 5352,
      "vis": 5353,
      "Ġadvanced": 5354,
      "Ġturns": 5355,
      "ĠJewish": 5356,
      "amber": 5357,
      "Ġstations": 5358,
      "Ġchosen": 5359,
      "Ġbrown": 5360,
      "Ġautom": 5361,
      "Ġadding": 5362,
      "ĠBru": 5363,
      "illy": 5364,
      "Ġath": 5365,
      "Ġhousehold": 5366,
      "Ġfrequently": 5367,
      "Ġnote": 5368,
      "ĠAlbert": 5369,
      "eke": 5370,
      "rich": 5371,
      "Ġkg": 5372,
      "ĠFriday": 5373,
      "Ġreception": 5374,
      "Ġ1943": 5375,
      "inger": 5376,
      "ĠSpain": 5377,
      "ĠPennsylvania": 5378,
      "ĠJes": 5379,
      "ĠBlue": 5380,
      "Ġrival": 5381,
      "bl": 5382,
      "ĠFleet": 5383,
      "ĠIra": 5384,
      "Ġreality": 5385,
      "atures": 5386,
      "Ġsoundtrack": 5387,
      "Ġclean": 5388,
      "ĠJac": 5389,
      "Ġcreation": 5390,
      "ĠChristmas": 5391,
      "va": 5392,
      "cend": 5393,
      "sey": 5394,
      "Ġinstrument": 5395,
      "Ġaffect": 5396,
      "Ġarmed": 5397,
      "ico": 5398,
      "ĠAlso": 5399,
      "Ġbodies": 5400,
      "Ġharm": 5401,
      "Ġshowing": 5402,
      "Ġready": 5403,
      "Ġparties": 5404,
      "ĠDuke": 5405,
      "gian": 5406,
      "uate": 5407,
      "Ġwalls": 5408,
      "Ġnewly": 5409,
      "Ġanimal": 5410,
      "ĠÎ": 5411,
      "Ġsites": 5412,
      "rig": 5413,
      "Ġaired": 5414,
      "ola": 5415,
      "ĠLet": 5416,
      "__": 5417,
      "ĠBrigade": 5418,
      "iful": 5419,
      "Ġvehicles": 5420,
      "Ġseat": 5421,
      "ĠJersey": 5422,
      "iner": 5423,
      "Ġpush": 5424,
      "Ġlooked": 5425,
      "Ġdeck": 5426,
      "Ġteacher": 5427,
      "29": 5428,
      "Ġpasses": 5429,
      "Ġnarrow": 5430,
      "Ġtree": 5431,
      "Ġguest": 5432,
      "Ġhonor": 5433,
      "ĠColumbia": 5434,
      "ĠDi": 5435,
      "Ġexped": 5436,
      "IA": 5437,
      "Ġcrime": 5438,
      "ĠOhio": 5439,
      "Ġban": 5440,
      "oma": 5441,
      "iÄĩ": 5442,
      "Ġstream": 5443,
      "see": 5444,
      "ĠMond": 5445,
      "ĠBond": 5446,
      "Ġreflect": 5447,
      "ordin": 5448,
      "Ġimproved": 5449,
      "Ġlearned": 5450,
      "ĠWrit": 5451,
      "Ġartillery": 5452,
      "ĠIrish": 5453,
      "verse": 5454,
      "Ġ1987": 5455,
      "Ġhistorical": 5456,
      "Ġadopted": 5457,
      "ĠElizabeth": 5458,
      "An": 5459,
      "ĠHomer": 5460,
      "Ġaccompan": 5461,
      "ĠCard": 5462,
      "ĠPen": 5463,
      "ĠMah": 5464,
      "Ġlimit": 5465,
      "Ġcultural": 5466,
      "Ġreign": 5467,
      "Ġimpl": 5468,
      "Ġcold": 5469,
      "ĠEle": 5470,
      "Ġcontained": 5471,
      "Ġexplos": 5472,
      "ĠWat": 5473,
      "Ġ600": 5474,
      "Ġdecades": 5475,
      "Ġformation": 5476,
      "Ġcore": 5477,
      "ĠCoast": 5478,
      "ewhere": 5479,
      "Ġcontemporary": 5480,
      "ĠNight": 5481,
      "Ġupgr": 5482,
      "rin": 5483,
      "eld": 5484,
      "Ġec": 5485,
      "Ġpoet": 5486,
      "ĠPrime": 5487,
      "Ġproducers": 5488,
      "hens": 5489,
      "Ġtal": 5490,
      "For": 5491,
      "Ġalleged": 5492,
      "pton": 5493,
      "Ġperman": 5494,
      "ĠGovernor": 5495,
      "ĠUpon": 5496,
      "ĠWild": 5497,
      "ĠFurther": 5498,
      "Ġbelief": 5499,
      "Ġshut": 5500,
      "Ġbiggest": 5501,
      "ricket": 5502,
      "Ġfiction": 5503,
      "osa": 5504,
      "ĠCD": 5505,
      "Ġatmosp": 5506,
      "ĠLab": 5507,
      "ĠUN": 5508,
      "ĠGirl": 5509,
      "70": 5510,
      "mine": 5511,
      "Ġsac": 5512,
      "ĠBoard": 5513,
      "Ġsport": 5514,
      "Ġprograms": 5515,
      "ĠOcean": 5516,
      "Ġnob": 5517,
      "Ġkilomet": 5518,
      "ĠTaylor": 5519,
      "elly": 5520,
      "ĠRel": 5521,
      "Ġpresidential": 5522,
      "Ġwick": 5523,
      "Ġcorpor": 5524,
      "outs": 5525,
      "Ġtemperature": 5526,
      "Ġdetermined": 5527,
      "Ġcasual": 5528,
      "Ġrom": 5529,
      "Ġdaily": 5530,
      "ĠHa": 5531,
      "ĠShort": 5532,
      "Ġtick": 5533,
      "ĠEs": 5534,
      "Ġremember": 5535,
      "ĠTwitter": 5536,
      "Ã¤": 5537,
      "enger": 5538,
      "Ġdial": 5539,
      "ura": 5540,
      "Ġfinish": 5541,
      "Ġorganized": 5542,
      "Ġflying": 5543,
      "Ġpul": 5544,
      "ĠAsh": 5545,
      "ographer": 5546,
      "dd": 5547,
      "ĠSound": 5548,
      "Ġvirt": 5549,
      "Ġmissing": 5550,
      "Ġcart": 5551,
      "Ġnorthwest": 5552,
      "Ġactors": 5553,
      "Ġdecre": 5554,
      "ĠFrancisco": 5555,
      "pir": 5556,
      "ĠSteve": 5557,
      "ĠBern": 5558,
      "ĠStorm": 5559,
      "Ġ1988": 5560,
      "ĠCat": 5561,
      "ĠTech": 5562,
      "Ġillust": 5563,
      "friend": 5564,
      "Ġrejected": 5565,
      "gers": 5566,
      "ipe": 5567,
      "Ġsession": 5568,
      "Ġyounger": 5569,
      "'m": 5570,
      "ĠOnce": 5571,
      "ifications": 5572,
      "Ġelev": 5573,
      "Ġsevere": 5574,
      "BS": 5575,
      "Ġhistorian": 5576,
      "Ġfocused": 5577,
      "Ġbirds": 5578,
      "Ġwounded": 5579,
      "wing": 5580,
      "Ġopinion": 5581,
      "Ġextremely": 5582,
      "Ġfish": 5583,
      "Ġnor": 5584,
      "ĠAsia": 5585,
      "Ġ53": 5586,
      "Ġprepared": 5587,
      "ĠTro": 5588,
      "Ġdebuted": 5589,
      "Ġarrested": 5590,
      "Ġsets": 5591,
      "Ġchallenge": 5592,
      "Ġphilos": 5593,
      "eper": 5594,
      "Ġconsisted": 5595,
      "Ġsingles": 5596,
      "isers": 5597,
      "ester": 5598,
      "Ġinstall": 5599,
      "ĠScottish": 5600,
      "Ġfranch": 5601,
      "ader": 5602,
      "Ġcontrolled": 5603,
      "ĠSupreme": 5604,
      "ĠPers": 5605,
      "Ġpowers": 5606,
      "Ġphone": 5607,
      "ĠCastle": 5608,
      "Ġscientific": 5609,
      "Ġille": 5610,
      "ĠTropical": 5611,
      "Ġactual": 5612,
      "Ġtransform": 5613,
      "Ġindustrial": 5614,
      "Ġconcerns": 5615,
      "Ġcamera": 5616,
      "ĠBor": 5617,
      "ĠStudios": 5618,
      "ĠGeorgia": 5619,
      "Ġintelligence": 5620,
      "ĠBush": 5621,
      "Ġven": 5622,
      "Ġsupposed": 5623,
      "azz": 5624,
      "ĠIraq": 5625,
      "iot": 5626,
      "Ġroles": 5627,
      "Ġancient": 5628,
      "iments": 5629,
      "agan": 5630,
      "utation": 5631,
      "ĠFestival": 5632,
      "Ġentr": 5633,
      "Ġviews": 5634,
      "Ġdrink": 5635,
      "Ġdedicated": 5636,
      "onym": 5637,
      "ba": 5638,
      "worth": 5639,
      "Ġregarded": 5640,
      "Ġsun": 5641,
      "ĠJustice": 5642,
      "respond": 5643,
      "Ġrear": 5644,
      "Ġdefence": 5645,
      "Ġmotion": 5646,
      "Ġgain": 5647,
      "uting": 5648,
      "ĠWell": 5649,
      "Ġgone": 5650,
      "Ġposted": 5651,
      "ĠWW": 5652,
      "onald": 5653,
      "ĠFace": 5654,
      "ĠBart": 5655,
      "imens": 5656,
      "Ġplanning": 5657,
      "Ġroads": 5658,
      "ĠEnd": 5659,
      "Ġdin": 5660,
      "Ġdisapp": 5661,
      "Ġwitness": 5662,
      "ĠSquare": 5663,
      "Ġabandoned": 5664,
      "amin": 5665,
      "...": 5666,
      "olt": 5667,
      "ĠHarry": 5668,
      "Ġbrain": 5669,
      "Ġoperated": 5670,
      "Ġusers": 5671,
      "ns": 5672,
      "Ġminister": 5673,
      "So": 5674,
      "izations": 5675,
      "Ġ41": 5676,
      "ĠBul": 5677,
      "ĠDaily": 5678,
      "Ġuns": 5679,
      "rane": 5680,
      "Ġshape": 5681,
      "iana": 5682,
      "ĠClark": 5683,
      "ĠColon": 5684,
      "Ġachieved": 5685,
      "What": 5686,
      "Ġscheduled": 5687,
      "igration": 5688,
      "Ġretired": 5689,
      "Ġregister": 5690,
      "Ġinvolve": 5691,
      "Ġaid": 5692,
      "Ġsand": 5693,
      "ĠInc": 5694,
      "Ġ54": 5695,
      "Ġresear": 5696,
      "Ġalternative": 5697,
      "hi": 5698,
      "Ġinterested": 5699,
      "Ã¨": 5700,
      "ĠMD": 5701,
      "ĠRet": 5702,
      "Ġhumans": 5703,
      "Ġclosely": 5704,
      "ishes": 5705,
      "ĠHead": 5706,
      "ĠBeat": 5707,
      "Ġsignificantly": 5708,
      "Ġdoor": 5709,
      "ashion": 5710,
      "Ġsell": 5711,
      "Ġbed": 5712,
      "ava": 5713,
      "Ġbasic": 5714,
      "Ġdescribes": 5715,
      "met": 5716,
      "pot": 5717,
      "ĠJo": 5718,
      "Ġwants": 5719,
      "Ġcatch": 5720,
      "Ġparalle": 5721,
      "ĠAlexander": 5722,
      "ĠIran": 5723,
      "Ġadvoc": 5724,
      "ef": 5725,
      "mod": 5726,
      "Ġconsecutive": 5727,
      "adelph": 5728,
      "ĠDie": 5729,
      "ano": 5730,
      "orship": 5731,
      "ĠMeanwhile": 5732,
      "Ġcalc": 5733,
      "24": 5734,
      "icit": 5735,
      "Ġitems": 5736,
      "Ġfought": 5737,
      "ĠSS": 5738,
      "Ġresident": 5739,
      "icip": 5740,
      "ĠWed": 5741,
      "Ġwealth": 5742,
      "essed": 5743,
      "ĠEp": 5744,
      "Ġdeveloping": 5745,
      "ĠFantasy": 5746,
      "icks": 5747,
      "Ġsupporting": 5748,
      "ĠCorn": 5749,
      "Ġstopped": 5750,
      "When": 5751,
      "iler": 5752,
      "ĠLiver": 5753,
      "reets": 5754,
      "ĠUl": 5755,
      "Ġflow": 5756,
      "ĠPrem": 5757,
      "awa": 5758,
      "Ġpersonnel": 5759,
      "Ġregarding": 5760,
      "Ġcells": 5761,
      "Ġseemed": 5762,
      "Ġexchange": 5763,
      "Ġcharges": 5764,
      "umes": 5765,
      "Ġreduce": 5766,
      "Ġwave": 5767,
      "Ġfavour": 5768,
      "itled": 5769,
      "ĠWho": 5770,
      "Ġparticipated": 5771,
      "Ġinh": 5772,
      "rif": 5773,
      "ĠMir": 5774,
      "aked": 5775,
      "Ġexperienced": 5776,
      "adelphia": 5777,
      "standing": 5778,
      "ĠChap": 5779,
      "ĠChild": 5780,
      "ĠOnly": 5781,
      "ĠMot": 5782,
      "urday": 5783,
      "Ġcomedy": 5784,
      "Ġdecade": 5785,
      "lease": 5786,
      "ĠCub": 5787,
      "Ġdifference": 5788,
      "Ġprotected": 5789,
      "ĠExp": 5790,
      "ĠOperation": 5791,
      "orney": 5792,
      "Ġtrip": 5793,
      "Ġbass": 5794,
      "oln": 5795,
      "Ġlooks": 5796,
      "Ġdevice": 5797,
      "Ġexpanded": 5798,
      "appe": 5799,
      "Ġselection": 5800,
      "Ġcredit": 5801,
      "Ġdomestic": 5802,
      "IN": 5803,
      "ĠGall": 5804,
      "Ġelimin": 5805,
      "That": 5806,
      "ĠKorean": 5807,
      "unte": 5808,
      "Ġapproved": 5809,
      "Ġsequence": 5810,
      "Ġrailway": 5811,
      "Ġwithdraw": 5812,
      "ĠHay": 5813,
      "ĠLind": 5814,
      "Ġdrama": 5815,
      "Ġconstitution": 5816,
      "Ġgranted": 5817,
      "ĠMul": 5818,
      "Ġvir": 5819,
      "Ġlocations": 5820,
      "Ġsquad": 5821,
      "Ġemail": 5822,
      "Ġfaith": 5823,
      "Ġbranch": 5824,
      "Ġextensive": 5825,
      "ĠLo": 5826,
      "Ġ1986": 5827,
      "Ġheight": 5828,
      "Ġconsequ": 5829,
      "Ġbelong": 5830,
      ".)": 5831,
      "Ġmassive": 5832,
      "Ġevac": 5833,
      "ructure": 5834,
      "ĠFound": 5835,
      "Ġinteresting": 5836,
      "Ġrainfall": 5837,
      "inity": 5838,
      "Ġsuccessfully": 5839,
      "Ġbriefly": 5840,
      "Ġunl": 5841,
      "ogle": 5842,
      "Ġoffers": 5843,
      "Ġfilming": 5844,
      "Ġcorrespond": 5845,
      "ĠKen": 5846,
      "ĠBroad": 5847,
      "ua": 5848,
      "water": 5849,
      "Ġgross": 5850,
      "ĠLy": 5851,
      "Ġfinds": 5852,
      "itc": 5853,
      "Ġmile": 5854,
      "Ġmouth": 5855,
      "Ġidentity": 5856,
      "Ġcab": 5857,
      "ĠDark": 5858,
      "Ġunus": 5859,
      "Ġ2017": 5860,
      "Ġ800": 5861,
      "Ġ1968": 5862,
      "gent": 5863,
      "Ġsubstant": 5864,
      "Ġreceiving": 5865,
      "ĠRevolution": 5866,
      "no": 5867,
      "Ġrot": 5868,
      "ĠJean": 5869,
      "ĠDisney": 5870,
      "Ġegg": 5871,
      "Ġboat": 5872,
      "Ġcontributed": 5873,
      "eg": 5874,
      "Ġfeeling": 5875,
      "Ġresistance": 5876,
      "ĠHollywood": 5877,
      "Ġreaction": 5878,
      "Ġfine": 5879,
      "Ġrestaur": 5880,
      "Ġfunding": 5881,
      "ĠPhiladelphia": 5882,
      "ĠNHL": 5883,
      "ourney": 5884,
      "iat": 5885,
      "Ġagent": 5886,
      "pective": 5887,
      "ĠLewis": 5888,
      "asketball": 5889,
      "Ġheadquarters": 5890,
      "Ġfinding": 5891,
      "ĠMiller": 5892,
      "Ġsurrender": 5893,
      "Ġcomments": 5894,
      "ĠDevelopment": 5895,
      "Ġcharged": 5896,
      "Ġedge": 5897,
      "Ġfeed": 5898,
      "Ġdrawn": 5899,
      "ON": 5900,
      "Ġcrisis": 5901,
      "ĠWalk": 5902,
      "ĠEvery": 5903,
      "Ġcontaining": 5904,
      "Ph": 5905,
      "Ġkid": 5906,
      "Ġroof": 5907,
      "Ġaccused": 5908,
      "Ġcenturies": 5909,
      "Ġdefined": 5910,
      "Ġsolid": 5911,
      "ĠPolish": 5912,
      "ĠTurn": 5913,
      "Ġlands": 5914,
      "Ġcommonly": 5915,
      "ls": 5916,
      "Ġmodels": 5917,
      "Ġtalking": 5918,
      "cious": 5919,
      "Ġ56": 5920,
      "ĠDavis": 5921,
      "bar": 5922,
      "ĠDown": 5923,
      "Ġdriving": 5924,
      "Ġhorses": 5925,
      "Ġdry": 5926,
      "Ġacquired": 5927,
      "rim": 5928,
      "etts": 5929,
      "ules": 5930,
      "Ġexerc": 5931,
      "ĠVen": 5932,
      "ĠLiverpool": 5933,
      "uration": 5934,
      "Ġyellow": 5935,
      "mann": 5936,
      "ĠJr": 5937,
      "Ġmoder": 5938,
      "Ġpolitic": 5939,
      "Ġunivers": 5940,
      "ansas": 5941,
      "Ġfilmed": 5942,
      "Ġequal": 5943,
      "Ġsilver": 5944,
      "Ġpric": 5945,
      "Ġdream": 5946,
      "Ġseeing": 5947,
      "Ġinjured": 5948,
      "burgh": 5949,
      "Ġsafe": 5950,
      "Ġvolume": 5951,
      "Ġconcerned": 5952,
      "mes": 5953,
      "ologist": 5954,
      "Ġreligion": 5955,
      "encies": 5956,
      "ĠChart": 5957,
      "Ġweeke": 5958,
      "Ġmotor": 5959,
      "Ġincreasingly": 5960,
      "Ġunsu": 5961,
      "ĠPolice": 5962,
      "ĠPerson": 5963,
      "cles": 5964,
      "ĠYour": 5965,
      "ĠInt": 5966,
      "athan": 5967,
      "Ġtrav": 5968,
      "Ġperforming": 5969,
      "==": 5970,
      "Ġimages": 5971,
      "ĠIslands": 5972,
      "iate": 5973,
      "ĠSaturday": 5974,
      "ĠBurn": 5975,
      "ĠConference": 5976,
      "Ġ120": 5977,
      "Ġturning": 5978,
      "Ġheads": 5979,
      "cÃ©": 5980,
      "hat": 5981,
      "Ġresponded": 5982,
      "ĠNever": 5983,
      "apore": 5984,
      "Ġsupporters": 5985,
      "Ġstarts": 5986,
      "Ġauth": 5987,
      "ĠPu": 5988,
      "Ġsolo": 5989,
      "ĠFire": 5990,
      "Ġowner": 5991,
      "Ġhappy": 5992,
      "amm": 5993,
      "Ġexclus": 5994,
      "ĠDoctor": 5995,
      "etime": 5996,
      "Ġresemb": 5997,
      "Ġconnected": 5998,
      "ĠBackground": 5999,
      "Ġ97": 6000,
      "Ġlanding": 6001,
      "ĠAllied": 6002,
      "Ġfreedom": 6003,
      "ĠLinc": 6004,
      "ĠKorea": 6005,
      "Ġbehavior": 6006,
      "Ġ95": 6007,
      "Ġcorner": 6008,
      "coming": 6009,
      "Ġble": 6010,
      "ilton": 6011,
      "Ġbottom": 6012,
      "ĠBas": 6013,
      "riff": 6014,
      "ĠBrook": 6015,
      "Ġfunds": 6016,
      "Ġreplace": 6017,
      "Ġ1985": 6018,
      "ĠSus": 6019,
      "Ġstock": 6020,
      "ĠAddition": 6021,
      "Ġengaged": 6022,
      "ĠAC": 6023,
      "ĠCur": 6024,
      "Ġvan": 6025,
      "agement": 6026,
      "Ġwatched": 6027,
      "arp": 6028,
      "ĠHun": 6029,
      "ceived": 6030,
      "ĠDue": 6031,
      "Ġconte": 6032,
      "cknow": 6033,
      "Ġdepartment": 6034,
      "Ġsquadron": 6035,
      "Ġroughly": 6036,
      "ĠOffic": 6037,
      "Ġmaintain": 6038,
      "Ġfacilities": 6039,
      "Ġpurchased": 6040,
      "ilding": 6041,
      "ographic": 6042,
      "state": 6043,
      "Ġ85": 6044,
      "adow": 6045,
      "Ġisol": 6046,
      "Ġdeclined": 6047,
      "//": 6048,
      "Ġstructures": 6049,
      "ĠRadio": 6050,
      "ĠAlbum": 6051,
      "ĠCommon": 6052,
      "ĠInstead": 6053,
      "23": 6054,
      "Ġletters": 6055,
      "Ġlosses": 6056,
      "ĠCommand": 6057,
      "ĠLincoln": 6058,
      "uties": 6059,
      "unior": 6060,
      "Ġchalleng": 6061,
      "Ġbor": 6062,
      "ĠLar": 6063,
      "Ġ57": 6064,
      "Ġcommitted": 6065,
      "Ġjobs": 6066,
      "Ġ59": 6067,
      "ĠReception": 6068,
      "ĠSingapore": 6069,
      "21": 6070,
      "ora": 6071,
      "eler": 6072,
      "ĠBalt": 6073,
      "ĠKir": 6074,
      "ati": 6075,
      "ĠSix": 6076,
      "ĠLoc": 6077,
      "Ġtitles": 6078,
      "Ġensure": 6079,
      "'ll": 6080,
      "Ġtower": 6081,
      "ĠHon": 6082,
      "Ġ1984": 6083,
      "ĠAmong": 6084,
      "tendo": 6085,
      "Ġgeneration": 6086,
      "Ġpitch": 6087,
      "ĠAri": 6088,
      "ighters": 6089,
      "Ġretire": 6090,
      "Ġsinging": 6091,
      "zer": 6092,
      "Ġshall": 6093,
      "Ġ1939": 6094,
      "ĠGet": 6095,
      "Ġru": 6096,
      "Ġvoted": 6097,
      "ĠCE": 6098,
      "ĠGro": 6099,
      "Ġspending": 6100,
      "ĠFall": 6101,
      "Ġregions": 6102,
      "Ġappeal": 6103,
      "Ġcarrying": 6104,
      "ĠProf": 6105,
      "Ġcommunities": 6106,
      "Ġhired": 6107,
      "urance": 6108,
      "ĠCambridge": 6109,
      "27": 6110,
      "ĠMos": 6111,
      "onto": 6112,
      "Ġceremony": 6113,
      "gency": 6114,
      "ears": 6115,
      "ĠConn": 6116,
      "Ġrecognized": 6117,
      "ĠHit": 6118,
      "Ġoperating": 6119,
      "Ġfilled": 6120,
      "rence": 6121,
      "Ġpicture": 6122,
      "ĠOk": 6123,
      "ĠPot": 6124,
      "Ġtouchdown": 6125,
      "Ġton": 6126,
      "aven": 6127,
      "Ġ76": 6128,
      "ĠThen": 6129,
      "ĠKim": 6130,
      "ÂŃ": 6131,
      "ĠWomen": 6132,
      "Ġbought": 6133,
      "ĠSom": 6134,
      "asty": 6135,
      "Ġobvious": 6136,
      "Ġapplied": 6137,
      "Ġstret": 6138,
      "Ġmyth": 6139,
      "ĠMonday": 6140,
      "Ġaccur": 6141,
      "Ġcrossing": 6142,
      "Ġrevolution": 6143,
      "ĠBrian": 6144,
      "Ġcomic": 6145,
      "Ġadvent": 6146,
      "Ġcra": 6147,
      "Ġsend": 6148,
      "ella": 6149,
      "Ġurban": 6150,
      "ĠNintendo": 6151,
      "Ġtwelve": 6152,
      "yles": 6153,
      "ashed": 6154,
      "Ġestate": 6155,
      "ao": 6156,
      "Ġdownload": 6157,
      "Ġsteel": 6158,
      "ĠRem": 6159,
      "Ġflu": 6160,
      "Ġhappen": 6161,
      "Ġvehicle": 6162,
      "ĠArthur": 6163,
      "Ġaccompanied": 6164,
      "restling": 6165,
      "Ġcommissioned": 6166,
      "Ġsecure": 6167,
      "Ġapart": 6168,
      "Ġpull": 6169,
      "ĠâĪ": 6170,
      "Ġmemory": 6171,
      "Ġproceed": 6172,
      "iform": 6173,
      "Ġdepth": 6174,
      "Ġoccupied": 6175,
      "arning": 6176,
      "agues": 6177,
      "Ġ66": 6178,
      "Ġkilometres": 6179,
      "Ch": 6180,
      "ĠReview": 6181,
      "ĠPlan": 6182,
      "Ġspecifically": 6183,
      "Ġseventh": 6184,
      "Ġrapidly": 6185,
      "Ġrates": 6186,
      "Ġthemes": 6187,
      "Ġacknow": 6188,
      "ato": 6189,
      "orus": 6190,
      "opher": 6191,
      "ipping": 6192,
      "Ġinternal": 6193,
      "RA": 6194,
      "Ġ99": 6195,
      "ĠWater": 6196,
      "gend": 6197,
      "Ġacts": 6198,
      "ĠConst": 6199,
      "ĠOlympic": 6200,
      "Ġcampus": 6201,
      "Ġexactly": 6202,
      "Ġtall": 6203,
      "Ġevening": 6204,
      "Ġthinking": 6205,
      "Ġworst": 6206,
      "Ġdeaths": 6207,
      "Ġx": 6208,
      "ador": 6209,
      "Ġoccas": 6210,
      "Ġfavorite": 6211,
      "iger": 6212,
      "eman": 6213,
      "Ġdelivered": 6214,
      "Ġawards": 6215,
      "Ġgirls": 6216,
      "Ġfranchise": 6217,
      "BN": 6218,
      "uan": 6219,
      "Ġhearing": 6220,
      "Ġ1967": 6221,
      "Ġcauses": 6222,
      "Ġpolicies": 6223,
      "rell": 6224,
      "cts": 6225,
      "col": 6226,
      "Ġyouth": 6227,
      "Ġstrate": 6228,
      "Ġjoint": 6229,
      "Ġlearning": 6230,
      "Ġflat": 6231,
      "Ġbra": 6232,
      "aka": 6233,
      "Ġquant": 6234,
      "Ġglass": 6235,
      "Ġzone": 6236,
      "ĠAI": 6237,
      "aza": 6238,
      "Ġcapable": 6239,
      "Ġresources": 6240,
      "ĠDonald": 6241,
      "ĠProduction": 6242,
      "Ġheat": 6243,
      "Ġislands": 6244,
      "ĠGib": 6245,
      "Ġsusp": 6246,
      "Ġstrategy": 6247,
      "26": 6248,
      "ĠRyan": 6249,
      "isa": 6250,
      "Ġenjoyed": 6251,
      "erts": 6252,
      "Ġ58": 6253,
      "Ġdistribution": 6254,
      "mun": 6255,
      "ĠVar": 6256,
      "heim": 6257,
      "Ġselect": 6258,
      "Ġcorrect": 6259,
      "atically": 6260,
      "Ġspoke": 6261,
      "Ġeffic": 6262,
      "Al": 6263,
      "ĠAnderson": 6264,
      "Ġ250": 6265,
      "ĠNFL": 6266,
      "Ġexistence": 6267,
      "Ġstrateg": 6268,
      "eral": 6269,
      "Ġbat": 6270,
      "Ġtruth": 6271,
      "ĠResearch": 6272,
      "Ġtact": 6273,
      "Ġnone": 6274,
      "Ġjudge": 6275,
      "Ġconnection": 6276,
      "Ġmerch": 6277,
      "Ġsymbol": 6278,
      "ww": 6279,
      "otic": 6280,
      "ĠGi": 6281,
      "ĠNap": 6282,
      "Ġarrival": 6283,
      "ĠBad": 6284,
      "ĠProv": 6285,
      "ĠGord": 6286,
      "ĠStand": 6287,
      "achus": 6288,
      "Ġpaint": 6289,
      "avalry": 6290,
      "Ġdriver": 6291,
      "ali": 6292,
      "ĠEarl": 6293,
      "going": 6294,
      "ĠNov": 6295,
      "Ġcontest": 6296,
      "Ġreputation": 6297,
      "theless": 6298,
      "Ġoption": 6299,
      "Ġmort": 6300,
      "rett": 6301,
      "Ġagricult": 6302,
      "bell": 6303,
      "Ġhydro": 6304,
      "avig": 6305,
      "://": 6306,
      "Ġrow": 6307,
      "Ġcombination": 6308,
      "Ġemployees": 6309,
      "Ġtorpedo": 6310,
      "ko": 6311,
      "lected": 6312,
      "ĠEmperor": 6313,
      "Ġhits": 6314,
      "Ġcertainly": 6315,
      "Ġproposal": 6316,
      "Ġshel": 6317,
      "ĠOrder": 6318,
      "Ġviewed": 6319,
      "ĠSpace": 6320,
      "Ġfashion": 6321,
      "icate": 6322,
      "ĠFair": 6323,
      "ĠGulf": 6324,
      "Ar": 6325,
      "ĠProject": 6326,
      "ĠSyd": 6327,
      "ĠDirector": 6328,
      "ĠSummer": 6329,
      "ĠElect": 6330,
      "Ġrich": 6331,
      "Ġpenal": 6332,
      "Ġscholars": 6333,
      "ĠColl": 6334,
      "Ġnotable": 6335,
      "Ġinterchange": 6336,
      "Ġbrothers": 6337,
      "othing": 6338,
      "Ġraise": 6339,
      "Ġsurvey": 6340,
      "ĠKat": 6341,
      "Ġspons": 6342,
      "Ġmountain": 6343,
      "ĠSpring": 6344,
      "Ġ1979": 6345,
      "Ġpublication": 6346,
      "rons": 6347,
      "Ġhang": 6348,
      "obe": 6349,
      "Ġneut": 6350,
      "Ġathlet": 6351,
      "Ġagency": 6352,
      "Ġcollected": 6353,
      "Ġ51": 6354,
      "Station": 6355,
      "Ġcited": 6356,
      "ĠNaz": 6357,
      "Ġsounds": 6358,
      "osis": 6359,
      "ĠGree": 6360,
      "Ġboats": 6361,
      "ĠGermans": 6362,
      "Ġsnow": 6363,
      "Ġspeaking": 6364,
      "ĠMcG": 6365,
      "Ġruled": 6366,
      "ĠKentucky": 6367,
      "dy": 6368,
      "emies": 6369,
      "Ġ1964": 6370,
      "Ã¸": 6371,
      "Ġfly": 6372,
      "Ġ1969": 6373,
      "icide": 6374,
      "ĠMain": 6375,
      "ĠNick": 6376,
      "rets": 6377,
      "ĠRos": 6378,
      "Ġ177": 6379,
      "Ġ1983": 6380,
      "Ġgameplay": 6381,
      "iques": 6382,
      "omp": 6383,
      "ĠDream": 6384,
      "ĠLady": 6385,
      "Ġappropri": 6386,
      "Ġmethods": 6387,
      "22": 6388,
      "uzz": 6389,
      "ads": 6390,
      "Ġstuff": 6391,
      "ĠIndust": 6392,
      "ĠAbout": 6393,
      "ĠLieutenant": 6394,
      "Ġintensity": 6395,
      "ĠIndepend": 6396,
      "ĠMas": 6397,
      "ĠJord": 6398,
      "Ġmode": 6399,
      "Ġtransition": 6400,
      "ĠPlayStation": 6401,
      "ĠPower": 6402,
      "Ġadmitted": 6403,
      "Ġtowns": 6404,
      "ĠGrant": 6405,
      "inois": 6406,
      "Ġlegislation": 6407,
      "ĠLes": 6408,
      "ĠColor": 6409,
      "achusetts": 6410,
      "Ġtank": 6411,
      "Ġplayoff": 6412,
      "Ġconsists": 6413,
      "ĠWalter": 6414,
      "ĠTen": 6415,
      "Ġenl": 6416,
      "Ġdenied": 6417,
      "ĠNBA": 6418,
      "Ġshark": 6419,
      "Ġcircum": 6420,
      "Ġcong": 6421,
      "Ġagree": 6422,
      "Ġimportance": 6423,
      "Ġorchest": 6424,
      "Ġ1975": 6425,
      "ĠBowl": 6426,
      "ctors": 6427,
      "ĠJenn": 6428,
      "enses": 6429,
      "Ġentry": 6430,
      "Ġdangerous": 6431,
      "Ġpartner": 6432,
      "ensus": 6433,
      "Ġ1982": 6434,
      "Ġinfantry": 6435,
      "Ġdrew": 6436,
      "weet": 6437,
      "Ġpopularity": 6438,
      "Ġstadium": 6439,
      "rows": 6440,
      "ĠImp": 6441,
      "Ġ74": 6442,
      "Ġbelieves": 6443,
      "Ġskin": 6444,
      "ĠMassachusetts": 6445,
      "break": 6446,
      "wick": 6447,
      "atever": 6448,
      "Ġsubmar": 6449,
      "Ġliterature": 6450,
      "oir": 6451,
      "Ġtele": 6452,
      "Ġbringing": 6453,
      "ĠGolden": 6454,
      "Ġvide": 6455,
      "nic": 6456,
      "Ġnick": 6457,
      "Ġphase": 6458,
      "Ġlose": 6459,
      "Ġteen": 6460,
      "Ġmounted": 6461,
      "Ġbenefit": 6462,
      "Ġexpedition": 6463,
      "Ġwel": 6464,
      "Ġpainting": 6465,
      "ĠSerb": 6466,
      "Ġstages": 6467,
      "ĠGreg": 6468,
      "Ġwinner": 6469,
      "Ġbands": 6470,
      "Ġdie": 6471,
      "ĠFree": 6472,
      "ĠToronto": 6473,
      "Ġwearing": 6474,
      "uesday": 6475,
      "Ġdescription": 6476,
      "ĠSher": 6477,
      "EC": 6478,
      "Ġmo": 6479,
      "ĠBall": 6480,
      "Ġfal": 6481,
      "Ġcompris": 6482,
      "Ġspokes": 6483,
      "Ġbaseball": 6484,
      "ĠSpecial": 6485,
      "ĠSR": 6486,
      "Ġpurchase": 6487,
      "Ġsemi": 6488,
      "acter": 6489,
      "Ġweekend": 6490,
      "rus": 6491,
      "Ġassistant": 6492,
      "Ġsecondary": 6493,
      "Ġinstalled": 6494,
      "Ġ1965": 6495,
      "nesday": 6496,
      "wall": 6497,
      "Ġ1966": 6498,
      "Ġpossibility": 6499,
      "Ġaccounts": 6500,
      "rage": 6501,
      "Ġtrains": 6502,
      "ossible": 6503,
      "Ġapproached": 6504,
      "Ġhundreds": 6505,
      "ja": 6506,
      "Ġ1972": 6507,
      "Ġtom": 6508,
      "Ġgenus": 6509,
      "Ġflooding": 6510,
      "ĠToday": 6511,
      "ĠFacebook": 6512,
      "osure": 6513,
      "ursday": 6514,
      "Ġhotel": 6515,
      "ĠAD": 6516,
      "ĠEdu": 6517,
      "Ġemployed": 6518,
      "Ġwrites": 6519,
      "Ġsan": 6520,
      "ĠIV": 6521,
      "ĠRome": 6522,
      "OS": 6523,
      "Ġprosec": 6524,
      "Ġcann": 6525,
      "Ġheaded": 6526,
      "Ġasking": 6527,
      "Ġconve": 6528,
      "Ġanaly": 6529,
      "Ġconsult": 6530,
      "Ġ178": 6531,
      "ĠApple": 6532,
      "ĠGil": 6533,
      "ĠPrin": 6534,
      "Ġmilit": 6535,
      "ĠBeyon": 6536,
      "Ġannounce": 6537,
      "ĠGoogle": 6538,
      "Ġsteam": 6539,
      "ĠMaryland": 6540,
      "ĠCarey": 6541,
      "ĠMoore": 6542,
      ">>": 6543,
      "idden": 6544,
      "ĠGre": 6545,
      "Ġcloud": 6546,
      "OT": 6547,
      "Ġcharts": 6548,
      "Ġsud": 6549,
      "Ġthreatened": 6550,
      "Ġresponsibility": 6551,
      "Ġabsol": 6552,
      "onia": 6553,
      "ĠHMS": 6554,
      "ĠPak": 6555,
      "inum": 6556,
      "eline": 6557,
      "Ġpiano": 6558,
      "ĠJay": 6559,
      "Ġproducing": 6560,
      "ĠWeb": 6561,
      "Ġclearly": 6562,
      "ĠHan": 6563,
      "ĠHou": 6564,
      "Ġundert": 6565,
      "Ġsoutheast": 6566,
      "Ġsale": 6567,
      "Ġrated": 6568,
      "Ġmuseum": 6569,
      "Ġtesting": 6570,
      "icy": 6571,
      "ĠBase": 6572,
      "Ġinterests": 6573,
      "Ġwatching": 6574,
      "ĠTuesday": 6575,
      "real": 6576,
      "ira": 6577,
      "Ġdistingu": 6578,
      "ker": 6579,
      "Ġvictims": 6580,
      "ĠMedia": 6581,
      "Ġtypical": 6582,
      "una": 6583,
      "Ġotherwise": 6584,
      "ĠProg": 6585,
      "Ġlap": 6586,
      "Ġaspects": 6587,
      "ĠGen": 6588,
      "Ġlatest": 6589,
      "ĠBon": 6590,
      "ĠStation": 6591,
      "Ġemp": 6592,
      "Ġrebu": 6593,
      "Ġsettlement": 6594,
      "apes": 6595,
      "Ġobtained": 6596,
      "Ġequival": 6597,
      "ĠPhilipp": 6598,
      "Ġstreets": 6599,
      "Ġ63": 6600,
      "ĠScience": 6601,
      "Ġpromote": 6602,
      "Ġintersection": 6603,
      "hus": 6604,
      "Ġdesigns": 6605,
      "Ġobjects": 6606,
      "osite": 6607,
      "SA": 6608,
      "ĠFederal": 6609,
      "Ġoverl": 6610,
      "Ġmanner": 6611,
      "Ġ1918": 6612,
      "ĠWednesday": 6613,
      "Ġshots": 6614,
      "Ġbattalion": 6615,
      "--------": 6616,
      "Ġeat": 6617,
      "arant": 6618,
      "Ġappoint": 6619,
      "Ġdifferences": 6620,
      "Ġsatis": 6621,
      "ta": 6622,
      "Ġmap": 6623,
      "ĠâĪĴ": 6624,
      "FC": 6625,
      "ĠId": 6626,
      "SP": 6627,
      "Ġsole": 6628,
      "Ġeffectively": 6629,
      "Ġsufficient": 6630,
      "Ġvari": 6631,
      "Ġweapon": 6632,
      "Ġjourney": 6633,
      "Ġentitled": 6634,
      "ĠNorway": 6635,
      "lig": 6636,
      "Ġnin": 6637,
      "ĠVietnam": 6638,
      "Ġalleg": 6639,
      "ĠMcK": 6640,
      "Ġdollars": 6641,
      "Ġcasualties": 6642,
      "Ġhol": 6643,
      "ĠStadium": 6644,
      "Ġ1971": 6645,
      "Ġenvironmental": 6646,
      "zant": 6647,
      "ĠHart": 6648,
      "ĠRoy": 6649,
      "Ġregional": 6650,
      "Ġvalues": 6651,
      "Ġanswer": 6652,
      "ez": 6653,
      "rant": 6654,
      "Ġcancer": 6655,
      "ĠSydney": 6656,
      "Ġindependence": 6657,
      "ĠOlympics": 6658,
      "rations": 6659,
      "ĠRoss": 6660,
      "iller": 6661,
      "ĠHealth": 6662,
      "Ġwarm": 6663,
      "cription": 6664,
      "ĠBeyoncÃ©": 6665,
      "Ġdress": 6666,
      "Ġ77": 6667,
      "ĠPoint": 6668,
      "ĠLi": 6669,
      "ĠAdam": 6670,
      "Ġbreaking": 6671,
      "Ġbattery": 6672,
      "ĠCra": 6673,
      "ĠThursday": 6674,
      "28": 6675,
      "hered": 6676,
      "Ġuser": 6677,
      "ĠTheat": 6678,
      "Ġsudden": 6679,
      "ĠSel": 6680,
      "Ġ1976": 6681,
      "Ġskills": 6682,
      "ĠJews": 6683,
      "Ġconverted": 6684,
      "Re": 6685,
      "ĠRand": 6686,
      "inder": 6687,
      "Ġ69": 6688,
      "Ġfactors": 6689,
      "ĠPass": 6690,
      "Ġvent": 6691,
      "How": 6692,
      "roid": 6693,
      "Ġshaped": 6694,
      "Ġconvin": 6695,
      "ĠJordan": 6696,
      "Ġlb": 6697,
      "ĠStew": 6698,
      "ubb": 6699,
      "ooth": 6700,
      "lets": 6701,
      "Ġintroduction": 6702,
      "Ġslowly": 6703,
      "senal": 6704,
      "ĠBry": 6705,
      "Ġcomposition": 6706,
      "Ġvotes": 6707,
      "then": 6708,
      "iders": 6709,
      "Ġevolution": 6710,
      "Ġindu": 6711,
      "Ġowners": 6712,
      "engers": 6713,
      "ĠRailway": 6714,
      "ĠByzant": 6715,
      "Ġ1914": 6716,
      "Ġrenamed": 6717,
      "regon": 6718,
      "ĠUr": 6719,
      "Ġarc": 6720,
      "ĠÅ": 6721,
      "Ġduty": 6722,
      "ĠAst": 6723,
      "ĠVill": 6724,
      "Ġrelief": 6725,
      "Ġunderstanding": 6726,
      "Ġdipl": 6727,
      "rete": 6728,
      "Ġsoul": 6729,
      "Ġcook": 6730,
      "ignment": 6731,
      "Ġwilling": 6732,
      "Ġdetermine": 6733,
      "Ġmeasures": 6734,
      "Ġburied": 6735,
      "lee": 6736,
      "olis": 6737,
      "ĠStaff": 6738,
      "Ġ73": 6739,
      "Ġunion": 6740,
      "Ġcrash": 6741,
      "Ġrenew": 6742,
      "Ġstandards": 6743,
      "Ã¡n": 6744,
      "erted": 6745,
      "Ġvon": 6746,
      "ĠTechn": 6747,
      "Ġclasses": 6748,
      "iliar": 6749,
      "Ġsections": 6750,
      "Ġstands": 6751,
      "ĠMoon": 6752,
      "ĠPict": 6753,
      "Ġdecline": 6754,
      "Ġmissed": 6755,
      "ĠPremier": 6756,
      "Ġca": 6757,
      "Ġsolution": 6758,
      "Ġsustained": 6759,
      "ĠPo": 6760,
      "oys": 6761,
      "Ġpromotion": 6762,
      "mouth": 6763,
      "Ġwides": 6764,
      "Ġ1981": 6765,
      "ĠEric": 6766,
      "Ġ1974": 6767,
      "ĠKevin": 6768,
      "Ġapparently": 6769,
      "iration": 6770,
      "ĠRun": 6771,
      "Ġ96": 6772,
      "Ġgay": 6773,
      "ĠNic": 6774,
      "ĠConstitution": 6775,
      "Ġextension": 6776,
      "Ġcontroversy": 6777,
      "itors": 6778,
      "bro": 6779,
      "pread": 6780,
      "ione": 6781,
      "aste": 6782,
      "Ġactress": 6783,
      "Ġindicated": 6784,
      "Ġ1973": 6785,
      "ĠRose": 6786,
      "Ġdisappe": 6787,
      "ĠAnth": 6788,
      "ela": 6789,
      "Ġparliament": 6790,
      "Ġvolunte": 6791,
      "Ġgall": 6792,
      "iversary": 6793,
      "Ġsoftware": 6794,
      "Ġstoryline": 6795,
      "Ġbanks": 6796,
      "ĠIllinois": 6797,
      "Ġ*": 6798,
      "ĠFord": 6799,
      "Ġvoters": 6800,
      "Ġunsuccess": 6801,
      "aug": 6802,
      "ĠTony": 6803,
      "ĠBand": 6804,
      "Ġmaterials": 6805,
      "Ġsupplies": 6806,
      "Ġinvolving": 6807,
      "Ġsam": 6808,
      "ĠAge": 6809,
      "abled": 6810,
      "ureau": 6811,
      "ĠAlb": 6812,
      "Ġinstance": 6813,
      "ĠRepublicans": 6814,
      "ĠLast": 6815,
      "Ġaccompl": 6816,
      "Ġwarning": 6817,
      "Ġpoem": 6818,
      "Ġalt": 6819,
      "ĠWhe": 6820,
      "Ġrural": 6821,
      "Ġentering": 6822,
      "Ġtechnical": 6823,
      "ophy": 6824,
      "Ġmales": 6825,
      "ĠBetween": 6826,
      "Ġpow": 6827,
      "ĠBal": 6828,
      "They": 6829,
      "Ġenemies": 6830,
      "Ġsleep": 6831,
      "ĠGordon": 6832,
      "math": 6833,
      "Ġdeleg": 6834,
      "ĠâĢ¦": 6835,
      "abil": 6836,
      "uster": 6837,
      "Ġspend": 6838,
      "ED": 6839,
      "Ġbom": 6840,
      "ĠKong": 6841,
      "Ġreserve": 6842,
      "Ġstudied": 6843,
      "Ġreturns": 6844,
      "Ġsouthwest": 6845,
      "Ġspin": 6846,
      "using": 6847,
      "OR": 6848,
      "ĠTam": 6849,
      "ĠSocial": 6850,
      "Ġnomination": 6851,
      "ĠNations": 6852,
      "Ġhousing": 6853,
      "ĠCru": 6854,
      "Ġhighlight": 6855,
      "ĠInternet": 6856,
      "ĠNetwork": 6857,
      "ĠOregon": 6858,
      "Ġexception": 6859,
      "Ġprisoners": 6860,
      "Ġprincipal": 6861,
      "cation": 6862,
      "iy": 6863,
      "erves": 6864,
      "Ġprovince": 6865,
      "Ġengines": 6866,
      "Ġgrounds": 6867,
      "Ġkeeping": 6868,
      "ĠConfeder": 6869,
      "bound": 6870,
      "wan": 6871,
      "Ġrecommended": 6872,
      "Ġtests": 6873,
      "rum": 6874,
      "ewhat": 6875,
      "ĠPit": 6876,
      "Ġacid": 6877,
      "ĠISBN": 6878,
      "tic": 6879,
      "Ġcricket": 6880,
      "elson": 6881,
      "ulpt": 6882,
      "ĠArts": 6883,
      "Ġ160": 6884,
      "Ġentrance": 6885,
      "MA": 6886,
      "Ð¾": 6887,
      "Ġtelling": 6888,
      "ĠHor": 6889,
      "Ġprotest": 6890,
      "Ġapplication": 6891,
      "lan": 6892,
      "Ġroutes": 6893,
      "ĠMarc": 6894,
      "Ġ1977": 6895,
      "Ġstrongly": 6896,
      "ĠPalest": 6897,
      "Ġsucceeded": 6898,
      "Ġatmosphere": 6899,
      "Sh": 6900,
      "Ġlibrary": 6901,
      "Ġ89": 6902,
      "Ġcredited": 6903,
      "Ġpreced": 6904,
      "Ġclubs": 6905,
      "Ġopposite": 6906,
      "ĠColonel": 6907,
      "Ġdates": 6908,
      "Ġleads": 6909,
      "Ġwars": 6910,
      "istol": 6911,
      "ĠJournal": 6912,
      "Ġscientists": 6913,
      "Ġpermanent": 6914,
      "Ð°": 6915,
      "ĠCop": 6916,
      "Ġkids": 6917,
      "Ġdesire": 6918,
      "Ġveter": 6919,
      "ĠFamily": 6920,
      "coh": 6921,
      "where": 6922,
      "ĠCa": 6923,
      "ĠGun": 6924,
      "Ġdriven": 6925,
      "Ġstood": 6926,
      "ĠSimon": 6927,
      "oard": 6928,
      "Ġneither": 6929,
      "ĠInit": 6930,
      "Ġinjuries": 6931,
      "Ġvision": 6932,
      "ĠVideo": 6933,
      "Ġguy": 6934,
      "Ġgenre": 6935,
      "Ġfacility": 6936,
      "Ġescort": 6937,
      "Ġdiscover": 6938,
      "ĠBarb": 6939,
      "ĠAirport": 6940,
      "Ġham": 6941,
      "ĠBa": 6942,
      "ĠDrag": 6943,
      "Ġrhy": 6944,
      "Ġ79": 6945,
      "wich": 6946,
      "Ġinvited": 6947,
      "ĠPoland": 6948,
      "osl": 6949,
      "Ġchemical": 6950,
      "ĠKer": 6951,
      "ĠAdams": 6952,
      "Ġexplain": 6953,
      "aki": 6954,
      "Ġ1978": 6955,
      "lyn": 6956,
      "chang": 6957,
      "Ġelections": 6958,
      "Ġ1946": 6959,
      "Ġdocuments": 6960,
      "ami": 6961,
      "Ġshif": 6962,
      "ĠHoward": 6963,
      "ĠHamilton": 6964,
      "ĠDemocrats": 6965,
      "Ġassistance": 6966,
      "Ġduties": 6967,
      "Ġchampion": 6968,
      "Ġcourts": 6969,
      "Ġrecognition": 6970,
      "night": 6971,
      "Ġpure": 6972,
      "ĠCirc": 6973,
      "phone": 6974,
      "ito": 6975,
      "Ġsurvived": 6976,
      "Ġgradually": 6977,
      "ĠPC": 6978,
      "Ġillegal": 6979,
      "ĠMP": 6980,
      "ĠLeon": 6981,
      "insula": 6982,
      "Ġfields": 6983,
      "aire": 6984,
      "Ġflo": 6985,
      "Ġcouldn": 6986,
      "Ġmoves": 6987,
      "ĠImperial": 6988,
      "leton": 6989,
      "ĠSports": 6990,
      "Ġ1917": 6991,
      "Ġclassic": 6992,
      "Ġequivalent": 6993,
      "GN": 6994,
      "Ġintention": 6995,
      "Ġrefuge": 6996,
      "Ġcandidates": 6997,
      "Ġsettled": 6998,
      "Ġ68": 6999,
      "Ġ78": 7000,
      "Ġargument": 7001,
      "ĠPhilip": 7002,
      "uters": 7003,
      "ĠEngine": 7004,
      "ĠMexican": 7005,
      "char": 7006,
      "iege": 7007,
      "isms": 7008,
      "Ġfactor": 7009,
      "Ġrecalled": 7010,
      "Ġcarbon": 7011,
      "Ġwidespread": 7012,
      "Ġwed": 7013,
      "Ġfacing": 7014,
      "Ġcoastal": 7015,
      "IT": 7016,
      "Ġentertain": 7017,
      "Ġbright": 7018,
      "Ġregularly": 7019,
      "Ġcinem": 7020,
      "endment": 7021,
      "yself": 7022,
      "Ġportrayed": 7023,
      "Ġintegr": 7024,
      "IC": 7025,
      "xual": 7026,
      "rees": 7027,
      "Ġformal": 7028,
      "noon": 7029,
      "Ġtied": 7030,
      "ĠJane": 7031,
      "Ġlasted": 7032,
      "roit": 7033,
      "Ġmun": 7034,
      "Ġintent": 7035,
      "Ġsomewhat": 7036,
      "Ġdestruction": 7037,
      "Ġcontroversial": 7038,
      "Ġ700": 7039,
      "host": 7040,
      "ĠNC": 7041,
      "bourne": 7042,
      "PA": 7043,
      "ĠSky": 7044,
      "Ġgiant": 7045,
      "Ġpenalty": 7046,
      "Ġlob": 7047,
      "Ġbegun": 7048,
      "wers": 7049,
      "arsh": 7050,
      "ĠUSA": 7051,
      "Ġchoose": 7052,
      "200": 7053,
      "Ġoccurs": 7054,
      "Ġvs": 7055,
      "iley": 7056,
      "Ġclassified": 7057,
      "Ġic": 7058,
      "Ġfil": 7059,
      "iamond": 7060,
      "Ġcloser": 7061,
      "ghan": 7062,
      "Ġemerged": 7063,
      "ĠTheatre": 7064,
      "ĠCape": 7065,
      "ternal": 7066,
      "ĠBeach": 7067,
      "Ġscheme": 7068,
      "ĠDig": 7069,
      "Ġemergency": 7070,
      "Ġplane": 7071,
      "ogen": 7072,
      "Ġ67": 7073,
      "ĠSyria": 7074,
      "Ġdevices": 7075,
      "rm": 7076,
      "Ġnoting": 7077,
      "aks": 7078,
      "ĠForest": 7079,
      "organ": 7080,
      "ĠKennedy": 7081,
      "ĠRa": 7082,
      "ĠKelly": 7083,
      "Ġassumed": 7084,
      "Ġswim": 7085,
      "Ġarranged": 7086,
      "Ġhosted": 7087,
      "ĠDri": 7088,
      "Ġ87": 7089,
      "ĠDeath": 7090,
      "ĠAnton": 7091,
      "ĠWhit": 7092,
      "oen": 7093,
      "ĠNaval": 7094,
      "ĠMun": 7095,
      "Ġconqu": 7096,
      "Ġacknowled": 7097,
      "Ġinner": 7098,
      "ĠTa": 7099,
      "ache": 7100,
      "Ġvul": 7101,
      "Ġearn": 7102,
      "Ġdowntown": 7103,
      "Ġtreated": 7104,
      "Ġcrossed": 7105,
      "Ġconsiderable": 7106,
      "ele": 7107,
      "orage": 7108,
      "Ġbond": 7109,
      "Ġearliest": 7110,
      "ĠDougl": 7111,
      "Ġinterpret": 7112,
      "issance": 7113,
      "ental": 7114,
      "ĠAk": 7115,
      "Ġreferences": 7116,
      "At": 7117,
      "ĠOur": 7118,
      "Ġretained": 7119,
      "Ġbusinesses": 7120,
      "Ġclim": 7121,
      "Ġneighborhood": 7122,
      "pro": 7123,
      "Ġacres": 7124,
      "Ġjustice": 7125,
      "je": 7126,
      "Ġbon": 7127,
      "Ġrelative": 7128,
      "azing": 7129,
      "aware": 7130,
      "Ġequipped": 7131,
      "Ġfreeway": 7132,
      "Ġmicro": 7133,
      "omic": 7134,
      "anger": 7135,
      "ĠCorpor": 7136,
      "Ġimmediate": 7137,
      "ĠTurk": 7138,
      "vy": 7139,
      "ĠProfess": 7140,
      "\".": 7141,
      "ca": 7142,
      "Ġcontext": 7143,
      "pes": 7144,
      "Ġweb": 7145,
      "Ġcoverage": 7146,
      "psons": 7147,
      "DS": 7148,
      "ilation": 7149,
      "ĠBir": 7150,
      "Ġsees": 7151,
      "Ġserves": 7152,
      "ĠArgent": 7153,
      "Ġ1962": 7154,
      "Ad": 7155,
      "Ġorganizations": 7156,
      "Ġsculpt": 7157,
      "Ġremove": 7158,
      "Ġdetect": 7159,
      "Ġvideos": 7160,
      "Ġfruit": 7161,
      "Ġresearchers": 7162,
      "Ġauthors": 7163,
      "Ġvary": 7164,
      "ĠArsenal": 7165,
      "Ġaer": 7166,
      "ĠPear": 7167,
      "Ġdisturb": 7168,
      "Ġdemocr": 7169,
      "Ġcrown": 7170,
      "Ġnotice": 7171,
      "Ġenforce": 7172,
      "veland": 7173,
      "Ġpointed": 7174,
      "Ġpatients": 7175,
      "Ġinvestment": 7176,
      "Ġphotograph": 7177,
      "vens": 7178,
      "Ġ130": 7179,
      "Ġadapted": 7180,
      "fire": 7181,
      "Ġlinked": 7182,
      "Ġnom": 7183,
      "emed": 7184,
      "usted": 7185,
      "ĠSimpsons": 7186,
      "Ġkingdom": 7187,
      "Ġinnov": 7188,
      "Ġparallel": 7189,
      "equ": 7190,
      "Ġacademic": 7191,
      "Ġsuit": 7192,
      "Ġ1948": 7193,
      "Ġholds": 7194,
      "Ġsuffering": 7195,
      "ĠMountain": 7196,
      "ĠEU": 7197,
      "rep": 7198,
      "Ġfalling": 7199,
      "Ġfemales": 7200,
      "ĠStanley": 7201,
      "\",": 7202,
      "Ġride": 7203,
      "ĠMorris": 7204,
      "Ġdiet": 7205,
      "ĠRub": 7206,
      "ĠFA": 7207,
      "uts": 7208,
      "ĠColorado": 7209,
      "Ġunusual": 7210,
      "aser": 7211,
      "Ġafternoon": 7212,
      "Ġcolour": 7213,
      "Ġpopulations": 7214,
      "Ġadults": 7215,
      "Ġreplacement": 7216,
      "Ġestablishment": 7217,
      "oz": 7218,
      "ĠMTV": 7219,
      "ĠAlan": 7220,
      "Ġlies": 7221,
      "weight": 7222,
      "Ġpages": 7223,
      "ĠAP": 7224,
      "ĠChannel": 7225,
      "ĠSongs": 7226,
      "ĠDetroit": 7227,
      "Ġconstant": 7228,
      "Ġputting": 7229,
      "ĠHouston": 7230,
      "ME": 7231,
      "Ġhal": 7232,
      "ĠTransport": 7233,
      "ĠHawai": 7234,
      "Å¡": 7235,
      "ĠTrib": 7236,
      "Ġcomplic": 7237,
      "Ġapprec": 7238,
      "uj": 7239,
      "achel": 7240,
      "Ġrum": 7241,
      "Ġaccommod": 7242,
      "ĠSab": 7243,
      "Ġhelping": 7244,
      "Ġdeparture": 7245,
      "ss": 7246,
      "owa": 7247,
      "ĠCentre": 7248,
      "ĠAgain": 7249,
      "ĠShortly": 7250,
      "western": 7251,
      "Ġsight": 7252,
      "Ġbasketball": 7253,
      "Ġattached": 7254,
      "anny": 7255,
      "Ġmovements": 7256,
      "ĠRhodes": 7257,
      "ĠDE": 7258,
      "Ġmeters": 7259,
      "Ġveget": 7260,
      "Ġchairman": 7261,
      "Ġinvolvement": 7262,
      "Ġclaiming": 7263,
      "Ġchanging": 7264,
      "ĠFoundation": 7265,
      "kes": 7266,
      "ĠBos": 7267,
      "ĠHo": 7268,
      "ĠDer": 7269,
      "ĠFeder": 7270,
      "ĠKa": 7271,
      "oster": 7272,
      "Ġrestrict": 7273,
      "Ġagents": 7274,
      "ĠCleveland": 7275,
      "after": 7276,
      "itely": 7277,
      "ĠNether": 7278,
      "iami": 7279,
      "Ġdoubt": 7280,
      "Ġtechniques": 7281,
      "Ġpicked": 7282,
      "Ġbalance": 7283,
      "Ġmedal": 7284,
      "Ġfiled": 7285,
      "Ġpushed": 7286,
      "Ġimpossible": 7287,
      "aints": 7288,
      "Ġ94": 7289,
      "ĠCult": 7290,
      "Ġchain": 7291,
      "Ġtruck": 7292,
      "TA": 7293,
      "Ġ1919": 7294,
      "Ġwindow": 7295,
      "Ġbreeding": 7296,
      "Ġprofessor": 7297,
      "Ġfoss": 7298,
      "ĠPur": 7299,
      "sole": 7300,
      "Ġdoctor": 7301,
      "ĠMemorial": 7302,
      "Ġdiplom": 7303,
      "Ġalien": 7304,
      "ĠGill": 7305,
      "Ġpartn": 7306,
      "aret": 7307,
      "Ġdiscovery": 7308,
      "ĠMov": 7309,
      "Ġdescribing": 7310,
      "ĠNar": 7311,
      "apse": 7312,
      "ĠRobinson": 7313,
      "Ġemotional": 7314,
      "Ġbeautiful": 7315,
      "ĠOttoman": 7316,
      "Ġopponents": 7317,
      "Ġcomfort": 7318,
      "ĠIndiana": 7319,
      "35": 7320,
      "ĠCart": 7321,
      "Ġexperiences": 7322,
      "aska": 7323,
      "ĠAssembly": 7324,
      "Ġremainder": 7325,
      "ĠHitler": 7326,
      "Ġconclusion": 7327,
      "Ġpregn": 7328,
      "Ġweakened": 7329,
      "ĠBruce": 7330,
      "Ġwonder": 7331,
      "Ġbreed": 7332,
      "Ġreportedly": 7333,
      "One": 7334,
      "ĠCab": 7335,
      "ĠHuman": 7336,
      "Ġenh": 7337,
      "ixon": 7338,
      "Ġminimum": 7339,
      "ĠScient": 7340,
      "Ġexcell": 7341,
      "Ġpassengers": 7342,
      "Ġcustomers": 7343,
      "hire": 7344,
      "ĠPier": 7345,
      "ĠEver": 7346,
      "Ġgrass": 7347,
      "ĠPatrick": 7348,
      "Ġstayed": 7349,
      "Ġfer": 7350,
      "ĠDNA": 7351,
      "Ġvolcan": 7352,
      "ĠTenn": 7353,
      "ĠAz": 7354,
      "Ġgather": 7355,
      "Ġ1963": 7356,
      "claimed": 7357,
      "ĠSeattle": 7358,
      "ĠMatthew": 7359,
      "Äģ": 7360,
      "Ġsessions": 7361,
      "ieval": 7362,
      "ĠAfghan": 7363,
      "Ġsuspend": 7364,
      "nce": 7365,
      "Ġpoly": 7366,
      "Ġdismissed": 7367,
      "ĠDouglas": 7368,
      "crib": 7369,
      "ĠMaria": 7370,
      "Ġmyself": 7371,
      "olec": 7372,
      "Ġseeking": 7373,
      "Ġcategory": 7374,
      "Ġprices": 7375,
      "Ġdiscussed": 7376,
      "Ġlane": 7377,
      "Ġpercentage": 7378,
      "Ġmemorial": 7379,
      "Ġdetailed": 7380,
      "Ġsegment": 7381,
      "Ġbear": 7382,
      "Ġopera": 7383,
      "ĠSimilar": 7384,
      "Ġtanks": 7385,
      "Ġlandfall": 7386,
      "Ġconvinced": 7387,
      "mates": 7388,
      "ĠSav": 7389,
      "ĠBudd": 7390,
      "Ġattacking": 7391,
      "ĠMicro": 7392,
      "Ġhip": 7393,
      "idges": 7394,
      "Ġdecor": 7395,
      "Ġ1938": 7396,
      "ĠMilitary": 7397,
      "Ġsurprise": 7398,
      "Ġprime": 7399,
      "Ġpassage": 7400,
      "ĠMorgan": 7401,
      "Ġdrugs": 7402,
      "ĠRow": 7403,
      "Ġouter": 7404,
      "Ġbenefits": 7405,
      "Ġster": 7406,
      "stances": 7407,
      "ĠLin": 7408,
      "Ġprogramme": 7409,
      "ĠTal": 7410,
      "ĠMit": 7411,
      "ĠBol": 7412,
      "Ġoldest": 7413,
      "Ġinformed": 7414,
      "ĠNelson": 7415,
      "Ġfeels": 7416,
      "Ġastron": 7417,
      "vant": 7418,
      "ĠHug": 7419,
      "ĠLow": 7420,
      "Ġfled": 7421,
      "ranean": 7422,
      "Ġmir": 7423,
      "Ġretreat": 7424,
      "Ġassociation": 7425,
      "sex": 7426,
      "ĠâĢĿ": 7427,
      "Ġneck": 7428,
      "Ġpatrol": 7429,
      "Ġnarrative": 7430,
      "Ġsteps": 7431,
      "ige": 7432,
      "ĠDC": 7433,
      "riers": 7434,
      "Ġ110": 7435,
      "Ġfict": 7436,
      "Ġphen": 7437,
      "ĠHell": 7438,
      "ĠFive": 7439,
      "ĠAllen": 7440,
      "Ġ1956": 7441,
      "scape": 7442,
      "ĠFront": 7443,
      "Ġ98": 7444,
      "Ġderived": 7445,
      "ĠTreat": 7446,
      "Ġchannel": 7447,
      "rine": 7448,
      "ĠMiami": 7449,
      "olitan": 7450,
      "Ġwouldn": 7451,
      "ĠAlab": 7452,
      "Ġcontinuing": 7453,
      "ĠSweden": 7454,
      "ĠMaster": 7455,
      "emeter": 7456,
      "Ġconservative": 7457,
      "ĠSupp": 7458,
      "Ġmand": 7459,
      "oli": 7460,
      "Ġcanc": 7461,
      "Ġ88": 7462,
      "Ġnest": 7463,
      "Ġdebt": 7464,
      "Ġproperties": 7465,
      "Ġhoped": 7466,
      "Ð¸": 7467,
      "ĠRain": 7468,
      "ĠRaj": 7469,
      "ĠNorwe": 7470,
      "Ġpulled": 7471,
      "thes": 7472,
      "ogy": 7473,
      "ĠVII": 7474,
      "Ġextent": 7475,
      "ĠPrinc": 7476,
      "Ġwaiting": 7477,
      "fted": 7478,
      "Ġrecru": 7479,
      "Ġliqu": 7480,
      "Ġ1915": 7481,
      "ĠCooper": 7482,
      "ĠMagazine": 7483,
      "ĠSingles": 7484,
      "Ġconvention": 7485,
      "Ġanimated": 7486,
      "Ġalcoh": 7487,
      "Ġrequested": 7488,
      "Ġtemporary": 7489,
      "ĠAuthor": 7490,
      "Ġfrag": 7491,
      "asure": 7492,
      "ching": 7493,
      "Ġprede": 7494,
      "Ġrelationships": 7495,
      "ĠMulder": 7496,
      "Ġgal": 7497,
      "Ġ1959": 7498,
      "Ġstick": 7499,
      "ĠThird": 7500,
      "ĠAlf": 7501,
      "Ġexplo": 7502,
      "Ġtries": 7503,
      "Ġblog": 7504,
      "Ġextreme": 7505,
      "Ġcrop": 7506,
      "ĠBrand": 7507,
      "issions": 7508,
      "Ġ1916": 7509,
      "Ġattracted": 7510,
      "Ġexamples": 7511,
      "Ðµ": 7512,
      "Ġhistoric": 7513,
      "ĠTar": 7514,
      "ĠLabor": 7515,
      "igrants": 7516,
      "Ġwins": 7517,
      "ilers": 7518,
      "soft": 7519,
      "ĠReal": 7520,
      "ĠGram": 7521,
      "ĠStr": 7522,
      "99": 7523,
      "ĠJam": 7524,
      "Ġadvice": 7525,
      "ĠAlabama": 7526,
      "Ġpin": 7527,
      "Ġeighth": 7528,
      "oken": 7529,
      "Ġcorrupt": 7530,
      "Ġpersu": 7531,
      "Ġdocumentary": 7532,
      "osaurus": 7533,
      "ĠWWE": 7534,
      "To": 7535,
      "har": 7536,
      "ĠDesign": 7537,
      "Ġretirement": 7538,
      "ĠDog": 7539,
      "Ġpublicly": 7540,
      "dule": 7541,
      "ĠUnlike": 7542,
      "aws": 7543,
      "Ġretail": 7544,
      "Ġcertified": 7545,
      "ping": 7546,
      "ĠFinn": 7547,
      "ĠBeck": 7548,
      "ĠIndones": 7549,
      "Ġ1961": 7550,
      "ĠOpen": 7551,
      "Ġdens": 7552,
      "Ġconsisting": 7553,
      "ĠArn": 7554,
      "ĠâĤ": 7555,
      "Ġsequel": 7556,
      "Ġproced": 7557,
      "Ġrose": 7558,
      "Ġnet": 7559,
      "borne": 7560,
      "Ġarmor": 7561,
      "ĠPortug": 7562,
      "Ġstruggle": 7563,
      "wen": 7564,
      "Ã¢": 7565,
      "Ġdifficulty": 7566,
      "cont": 7567,
      "ĠJesus": 7568,
      "ĠIGN": 7569,
      "Ġcustom": 7570,
      "Ġfinishing": 7571,
      "Ġstring": 7572,
      "ĠPhill": 7573,
      "Ġgreatly": 7574,
      "Ġsolar": 7575,
      "ĠRick": 7576,
      "Ġassess": 7577,
      "Ġped": 7578,
      "ĠMars": 7579,
      "Ġformat": 7580,
      "ĠWright": 7581,
      "Ġvice": 7582,
      "Ġdisag": 7583,
      "Ġcycle": 7584,
      "bec": 7585,
      "po": 7586,
      "ÅĤ": 7587,
      "sea": 7588,
      "ocking": 7589,
      "Ġattributed": 7590,
      "gus": 7591,
      "rams": 7592,
      "Ġrequires": 7593,
      "Ġknows": 7594,
      "Ġdistributed": 7595,
      "cop": 7596,
      "ĠFame": 7597,
      "Ġuniform": 7598,
      "based": 7599,
      "ĠSin": 7600,
      "ĠML": 7601,
      "ĠThus": 7602,
      "Ġ62": 7603,
      "Ġ1958": 7604,
      "Ġfalse": 7605,
      "oked": 7606,
      "Ġknots": 7607,
      "Ġcompletion": 7608,
      "Ġraces": 7609,
      "Ġsatell": 7610,
      "ĠLyn": 7611,
      "ĠNBC": 7612,
      "ĠUt": 7613,
      "Ġrescue": 7614,
      "Ġbes": 7615,
      "Ġconvent": 7616,
      "ĠSecurity": 7617,
      "Ġboys": 7618,
      "Ġsons": 7619,
      "ĠRen": 7620,
      "Ġvast": 7621,
      "Ġregiment": 7622,
      "Ġ1936": 7623,
      "Ġrooms": 7624,
      "Ġabsence": 7625,
      "Ġratings": 7626,
      "Ġpredecess": 7627,
      "oyd": 7628,
      "Ġ72": 7629,
      "aired": 7630,
      "Ġske": 7631,
      "Ġuseful": 7632,
      "Ġeru": 7633,
      "Ġuncertain": 7634,
      "Ġtorn": 7635,
      "isement": 7636,
      "ĠBah": 7637,
      "phoon": 7638,
      "Ġdemol": 7639,
      "rac": 7640,
      "ĠAh": 7641,
      "ĠAndy": 7642,
      "Ġtack": 7643,
      "heastern": 7644,
      "ĠRu": 7645,
      "ĠDean": 7646,
      "Ġfamiliar": 7647,
      "Ġmarkets": 7648,
      "Ġdated": 7649,
      "Ġexpensive": 7650,
      "da": 7651,
      "ĠTok": 7652,
      "Ġsector": 7653,
      "45": 7654,
      "eor": 7655,
      "ĠCarter": 7656,
      "Ġcul": 7657,
      "Ġfolk": 7658,
      "Ġiniti": 7659,
      "Ġadopt": 7660,
      "Ġbehavi": 7661,
      "reck": 7662,
      "Ġhill": 7663,
      "Ġremix": 7664,
      "inals": 7665,
      "ĠBrother": 7666,
      "Ġoptions": 7667,
      "ĠWeekly": 7668,
      "Ġoccasionally": 7669,
      "Ġthirty": 7670,
      "Ġoperate": 7671,
      "Ġvisible": 7672,
      "itzer": 7673,
      "ĠNob": 7674,
      "Ġori": 7675,
      "Ġloyal": 7676,
      "Ġaren": 7677,
      "Ġcoordin": 7678,
      "Ġmedium": 7679,
      "Ġvessels": 7680,
      "AL": 7681,
      "Ġwhatever": 7682,
      "Ġuniverse": 7683,
      "Ġresolution": 7684,
      "usal": 7685,
      "ensions": 7686,
      "rency": 7687,
      "Ġviolent": 7688,
      "Ġsurviv": 7689,
      "'d": 7690,
      "âĢĿ.": 7691,
      "erto": 7692,
      "Ġmaint": 7693,
      "Ġrestaurant": 7694,
      "Ġ1953": 7695,
      "Ġattempting": 7696,
      "][": 7697,
      "Ġsail": 7698,
      "Ġstrengthen": 7699,
      "anth": 7700,
      "ĠIron": 7701,
      "ĠMediter": 7702,
      "Ġarchitecture": 7703,
      "ye": 7704,
      "Ġsed": 7705,
      "Ġabort": 7706,
      "Ġobserv": 7707,
      "Ġtargets": 7708,
      "Ġjournalist": 7709,
      "ĠFI": 7710,
      "Ġrecovered": 7711,
      "Ġsigns": 7712,
      "Ġ1957": 7713,
      "Ġengineering": 7714,
      "Ġsurrounded": 7715,
      "Ġtemperatures": 7716,
      "Ġinstitutions": 7717,
      "ĠRolling": 7718,
      "Ġfur": 7719,
      "Ġmeat": 7720,
      "Ġairport": 7721,
      "Ġthousand": 7722,
      "ĠAdditionally": 7723,
      "Ġmine": 7724,
      "Ġanniversary": 7725,
      "ĠProt": 7726,
      "Ġcreative": 7727,
      "Ġfrust": 7728,
      "Ġwait": 7729,
      "ĠUTC": 7730,
      "ĠAsian": 7731,
      "Ġsuperior": 7732,
      "Ġbid": 7733,
      "Ġexcess": 7734,
      "Ġtemple": 7735,
      "ĠMediterranean": 7736,
      "ĠConstant": 7737,
      "Ġmainstream": 7738,
      "Ġmissions": 7739,
      "prise": 7740,
      "ĠMurray": 7741,
      "ĠTru": 7742,
      "Ġabsor": 7743,
      "rint": 7744,
      "acle": 7745,
      "Ġprohib": 7746,
      "ĠThompson": 7747,
      "Ġmental": 7748,
      "ĠNorwegian": 7749,
      "ĠCas": 7750,
      "Ġstead": 7751,
      "Ġtrained": 7752,
      "Ġpractices": 7753,
      "ĠTemple": 7754,
      "ĠWithin": 7755,
      "Ġparticipate": 7756,
      "ĠRoger": 7757,
      "life": 7758,
      "Ġthin": 7759,
      "ogan": 7760,
      "ĠScully": 7761,
      "Ġ175": 7762,
      "Ġpraise": 7763,
      "Ġprincip": 7764,
      "ĠSn": 7765,
      "Ġnavig": 7766,
      "ails": 7767,
      "Ġ1910": 7768,
      "Ġinspiration": 7769,
      "ĠCritical": 7770,
      "han": 7771,
      "Ġmusicians": 7772,
      "33": 7773,
      "ĠGard": 7774,
      "mate": 7775,
      "Ġhat": 7776,
      "ĠAff": 7777,
      "ultane": 7778,
      "Ġoffering": 7779,
      "Ġreinforce": 7780,
      "Ġshore": 7781,
      "Ġsongwrit": 7782,
      "ĠDomin": 7783,
      "agle": 7784,
      "Ġ86": 7785,
      "Ġseparated": 7786,
      "ĠEducation": 7787,
      "Ġgrown": 7788,
      "ttp": 7789,
      "Ġfra": 7790,
      "Ġfile": 7791,
      "icine": 7792,
      "Ġdisrupt": 7793,
      "Ġdecisions": 7794,
      "Ġfounder": 7795,
      "After": 7796,
      "Ġreveals": 7797,
      "ĠFreder": 7798,
      "Ġtaught": 7799,
      "Ġdepos": 7800,
      "Ġhanded": 7801,
      "Ġgoods": 7802,
      "ĠParker": 7803,
      "yo": 7804,
      "ilty": 7805,
      "Ġoverse": 7806,
      "Ġmulti": 7807,
      "Ġdub": 7808,
      "ĠMcD": 7809,
      "ĠDick": 7810,
      "Ġgenerated": 7811,
      "ĠLisa": 7812,
      "ĠNetherlands": 7813,
      "fare": 7814,
      "hess": 7815,
      "Ġrepresenting": 7816,
      "ĠJason": 7817,
      "Ġrefere": 7818,
      "Ġassemb": 7819,
      "Ġdecide": 7820,
      "ĠAdminist": 7821,
      "Ġplus": 7822,
      "aph": 7823,
      "ĠPlot": 7824,
      "Ġpossession": 7825,
      "Ġliterary": 7826,
      "ĠBeatles": 7827,
      "ĠNich": 7828,
      "ĠConc": 7829,
      "sters": 7830,
      "Ġ1954": 7831,
      "Ġruling": 7832,
      "Ġengineer": 7833,
      "Ġrarely": 7834,
      "Ġcomposer": 7835,
      "Ġdelayed": 7836,
      "orous": 7837,
      "Ġfighter": 7838,
      "Ġben": 7839,
      "ĠCook": 7840,
      "orders": 7841,
      "Ġpublisher": 7842,
      "Ġdescend": 7843,
      "Ġsmart": 7844,
      "Ġregistered": 7845,
      "oking": 7846,
      "Ġcharacteristics": 7847,
      "agonist": 7848,
      "Ġtheatre": 7849,
      "Ġpremiere": 7850,
      "vals": 7851,
      "ocated": 7852,
      "Ġsitting": 7853,
      "ĠKey": 7854,
      "OP": 7855,
      "umph": 7856,
      "Ġ1947": 7857,
      "ĠHarris": 7858,
      "Ġlanguages": 7859,
      "yard": 7860,
      "olph": 7861,
      "Ġdeemed": 7862,
      "hetic": 7863,
      "ĠLabour": 7864,
      "Ġunderst": 7865,
      "Ġassass": 7866,
      "uable": 7867,
      "Ġfighters": 7868,
      "Ġ1955": 7869,
      "ĠOrgan": 7870,
      "Ġeggs": 7871,
      "aria": 7872,
      "alo": 7873,
      "Ġlake": 7874,
      "umin": 7875,
      "place": 7876,
      "Ġguys": 7877,
      "Ġmoral": 7878,
      "iary": 7879,
      "Ġfaster": 7880,
      "acked": 7881,
      "Ġdepict": 7882,
      "ĠCry": 7883,
      "Ġtrials": 7884,
      "ĠThroughout": 7885,
      "idel": 7886,
      "ĠBang": 7887,
      "thm": 7888,
      "Ġvulner": 7889,
      "Ġocean": 7890,
      "Ġrender": 7891,
      "ĠSant": 7892,
      "ogether": 7893,
      "ĠKnight": 7894,
      "CA": 7895,
      "Ġusual": 7896,
      "tenance": 7897,
      "Ġfootage": 7898,
      "Ġancest": 7899,
      "icious": 7900,
      "Ġnice": 7901,
      "ĠCamer": 7902,
      "ĠIowa": 7903,
      "igen": 7904,
      "Ġ84": 7905,
      "ologists": 7906,
      "Ġsigning": 7907,
      "Ġcommanded": 7908,
      "iens": 7909,
      "Ġbot": 7910,
      "Ġnations": 7911,
      "Ġenthus": 7912,
      "gery": 7913,
      "ST": 7914,
      "ĠDal": 7915,
      "Ġreleases": 7916,
      "ĠRussell": 7917,
      "Ġdiscussion": 7918,
      "ĠBatman": 7919,
      "ĠJacob": 7920,
      "Ġsympt": 7921,
      "otype": 7922,
      "ĠOak": 7923,
      "Ġpermission": 7924,
      "ĠRoberts": 7925,
      "agu": 7926,
      "Ġgrade": 7927,
      "Ġterminus": 7928,
      "ĠBab": 7929,
      "ĠObs": 7930,
      "Ġclassical": 7931,
      "upp": 7932,
      "ĠFBI": 7933,
      "Ġmobile": 7934,
      "ĠNorman": 7935,
      "?âĢĿ": 7936,
      "Ġworse": 7937,
      "Ġplate": 7938,
      "Ġcooper": 7939,
      "Ġtruly": 7940,
      "AAF": 7941,
      "Ġbreat": 7942,
      "Ġprey": 7943,
      "ĠArk": 7944,
      "teenth": 7945,
      "Ġoutbreak": 7946,
      "Ġinterior": 7947,
      "Ġoffices": 7948,
      "Ġclassification": 7949,
      "Ġapproval": 7950,
      "ĠMinnes": 7951,
      "pet": 7952,
      "ĠTs": 7953,
      "Ġbrigade": 7954,
      "Ġdescribe": 7955,
      "With": 7956,
      "Å£": 7957,
      "Ġpool": 7958,
      "Ġstable": 7959,
      "Ġexposed": 7960,
      "Ġdiagn": 7961,
      "ĠGreece": 7962,
      "ĠAth": 7963,
      "cho": 7964,
      "formation": 7965,
      "Ġcompete": 7966,
      "Ġhunting": 7967,
      "utor": 7968,
      "Ġaged": 7969,
      "Ġmodified": 7970,
      "ĠTelevision": 7971,
      "Ġavo": 7972,
      "ĠBerlin": 7973,
      "Ġencouraged": 7974,
      "Ġwish": 7975,
      "ĠWy": 7976,
      "ucks": 7977,
      "Ġcirculation": 7978,
      "Ġperspective": 7979,
      "Ġfictional": 7980,
      "ĠLenn": 7981,
      "ĠLibrary": 7982,
      "ĠMarine": 7983,
      "Ġdynam": 7984,
      "uations": 7985,
      "imore": 7986,
      "arked": 7987,
      "Ġseriously": 7988,
      "Ġpurposes": 7989,
      "ĠSanta": 7990,
      "udes": 7991,
      "Ġphr": 7992,
      "ĠSenator": 7993,
      "ĠWinter": 7994,
      "iveness": 7995,
      "Ġmathem": 7996,
      "Ġlawsu": 7997,
      "Ġlegs": 7998,
      "Ġdivisions": 7999,
      "Ġdating": 8000,
      "Ġeleven": 8001,
      "Ġvisitors": 8002,
      "rastructure": 8003,
      "zona": 8004,
      "Ġfestival": 8005,
      "Ġunless": 8006,
      "cope": 8007,
      "Ġsurviving": 8008,
      "Ġmoments": 8009,
      "ĠCre": 8010,
      "hedral": 8011,
      "Ġ93": 8012,
      "ĠPrior": 8013,
      "Ġmoderate": 8014,
      "achment": 8015,
      "ĠÃĹ": 8016,
      "Ġdegrees": 8017,
      "Ġflash": 8018,
      "Ġaudio": 8019,
      "emetery": 8020,
      "oral": 8021,
      "Ġhockey": 8022,
      "unes": 8023,
      "Ġsuicide": 8024,
      "Ġcommunication": 8025,
      "Ġschedule": 8026,
      "Ġethnic": 8027,
      "roud": 8028,
      "Ġ1937": 8029,
      "Ġid": 8030,
      "andal": 8031,
      "Ġmonarch": 8032,
      "Ġanticip": 8033,
      "ĠRon": 8034,
      "Ġrig": 8035,
      "Ġcruiser": 8036,
      "ĠAnthony": 8037,
      "Ġsick": 8038,
      "ĠDra": 8039,
      "Ġaboard": 8040,
      "hatt": 8041,
      "ture": 8042,
      "wa": 8043,
      "ulating": 8044,
      "Ġcontroll": 8045,
      "Ġjoining": 8046,
      "Ġmotiv": 8047,
      "Ġnegotiations": 8048,
      "Ġtight": 8049,
      "Ġcash": 8050,
      "ĠXbox": 8051,
      "Ã³n": 8052,
      "Ġrevenue": 8053,
      "ameter": 8054,
      "Ġdevelopers": 8055,
      "Ġrestored": 8056,
      "Ġteaching": 8057,
      "ĠCall": 8058,
      "aya": 8059,
      "Ġstress": 8060,
      "Ġresign": 8061,
      "ĠDead": 8062,
      "Ġwhereas": 8063,
      "ĠUlt": 8064,
      "roc": 8065,
      "ĠTower": 8066,
      "oming": 8067,
      "Ġ1933": 8068,
      "Ġutil": 8069,
      "Ġtrouble": 8070,
      "Ġchorus": 8071,
      "Ġpersonality": 8072,
      "Ġfunctions": 8073,
      "Ġash": 8074,
      "resents": 8075,
      "ĠBristol": 8076,
      "Ġinfluential": 8077,
      "Ġpound": 8078,
      "ĠAround": 8079,
      "Ġcards": 8080,
      "active": 8081,
      "Ġmeets": 8082,
      "li": 8083,
      "Ġow": 8084,
      "ĠCR": 8085,
      "Ġclimb": 8086,
      "Ġscen": 8087,
      "ĠAnne": 8088,
      "Ġfoundation": 8089,
      "Ġmatters": 8090,
      "oslav": 8091,
      "Ġperiods": 8092,
      "Ġcollapse": 8093,
      "power": 8094,
      "Ġinse": 8095,
      "Ġseats": 8096,
      "Ġproport": 8097,
      "Ġshift": 8098,
      "Ġconstruct": 8099,
      "Ġeasier": 8100,
      "Ġfrequent": 8101,
      "ĠWalker": 8102,
      "Ġappearing": 8103,
      "ellect": 8104,
      "ĠBi": 8105,
      "ĠHoly": 8106,
      "ĠWindows": 8107,
      "otten": 8108,
      "rome": 8109,
      "ĠEst": 8110,
      "Ġju": 8111,
      "ĠRecording": 8112,
      "Ġchapter": 8113,
      "iency": 8114,
      "mers": 8115,
      "Ġmolec": 8116,
      "ĠHospital": 8117,
      "Ġgraphics": 8118,
      "Ġsubstantial": 8119,
      "ĠLanc": 8120,
      "ĠUnivers": 8121,
      "Ġfiring": 8122,
      "Ġnickn": 8123,
      "Ġtechnique": 8124,
      "Ġdominated": 8125,
      "aud": 8126,
      "do": 8127,
      "elle": 8128,
      "Ġstorage": 8129,
      "ĠHand": 8130,
      "Ġ1935": 8131,
      "iac": 8132,
      "Ġpounds": 8133,
      "urally": 8134,
      "ĠBou": 8135,
      "Ġrepresents": 8136,
      "Ġguarant": 8137,
      "Ġlanded": 8138,
      "CC": 8139,
      "ĠLim": 8140,
      "ĠHend": 8141,
      "Ġpassenger": 8142,
      "ĠSilver": 8143,
      "ĠGuardian": 8144,
      "Ġdeployed": 8145,
      "emor": 8146,
      "Ġcovers": 8147,
      "ishment": 8148,
      "Ġsailed": 8149,
      "ĠAlong": 8150,
      "Ġcomparison": 8151,
      "mad": 8152,
      "Ġbelt": 8153,
      "Ġincorporated": 8154,
      "Ġpreferred": 8155,
      "inian": 8156,
      "Ġbaby": 8157,
      "uther": 8158,
      "Ġintense": 8159,
      "Ġarticles": 8160,
      "Ġhabitat": 8161,
      "Ġpartnership": 8162,
      "Ġcarrier": 8163,
      "ĠStra": 8164,
      "Ã±": 8165,
      "elsh": 8166,
      "Ġasks": 8167,
      "ĠHeart": 8168,
      "obi": 8169,
      "Ġexplains": 8170,
      "rates": 8171,
      "Ġels": 8172,
      "ĠEconom": 8173,
      "Ġjur": 8174,
      "Ġoutl": 8175,
      "Ġfemin": 8176,
      "ĠIsraeli": 8177,
      "ĠMinnesota": 8178,
      "Ġclin": 8179,
      "Ġsimultane": 8180,
      "Ġarrangement": 8181,
      "ĠCorporation": 8182,
      "Ġelsewhere": 8183,
      "ĠPolit": 8184,
      "Ġhistorians": 8185,
      "Ġessential": 8186,
      "don": 8187,
      "die": 8188,
      "Ġforming": 8189,
      "bre": 8190,
      "Ġvert": 8191,
      "acent": 8192,
      "urches": 8193,
      "utt": 8194,
      "ĠChron": 8195,
      "ĠMarg": 8196,
      "ologies": 8197,
      "Ġreprodu": 8198,
      "ĠModern": 8199,
      "Ġexcellent": 8200,
      "AD": 8201,
      "Ġkne": 8202,
      "Ġninth": 8203,
      "Ġmal": 8204,
      "ĠHin": 8205,
      "Ġresigned": 8206,
      "Ġoverw": 8207,
      "Ġconscious": 8208,
      "Ġopponent": 8209,
      "ĠConstruction": 8210,
      "gon": 8211,
      "Ġrush": 8212,
      "Ġdrivers": 8213,
      "Ġtone": 8214,
      "ĠStory": 8215,
      "Ġinsurance": 8216,
      "Ġideal": 8217,
      "ĠSwedish": 8218,
      "ĠExt": 8219,
      "Ġsup": 8220,
      "ounced": 8221,
      "Ġreaders": 8222,
      "Ġwings": 8223,
      "ĠKansas": 8224,
      "Ġ61": 8225,
      "Ġelectronic": 8226,
      "Ġromantic": 8227,
      "Ġboss": 8228,
      "Ġconsidering": 8229,
      "Ġlisten": 8230,
      "ĠPalace": 8231,
      "Ġgender": 8232,
      "Ġmurd": 8233,
      "**": 8234,
      "isp": 8235,
      "iva": 8236,
      "obile": 8237,
      "ĠIslamic": 8238,
      "ĠArizona": 8239,
      "ĠDec": 8240,
      "Ġrepresentative": 8241,
      "Ġcuts": 8242,
      "ĠBelg": 8243,
      "Ġmillions": 8244,
      "ĠBaltimore": 8245,
      "Ġafford": 8246,
      "Ġanimation": 8247,
      "Ġpainted": 8248,
      "ĠBuff": 8249,
      "Ġadm": 8250,
      "Ġdrawing": 8251,
      "Ġadaptation": 8252,
      "Ġdialogue": 8253,
      "ĠByzantine": 8254,
      "Ġodd": 8255,
      "ila": 8256,
      "ials": 8257,
      "ronze": 8258,
      "Ġ1952": 8259,
      "Ġamounts": 8260,
      "Ġloan": 8261,
      "ĠFal": 8262,
      "Ġprove": 8263,
      "Ġmonitor": 8264,
      "ĠIndians": 8265,
      "Ġ1949": 8266,
      "ĠDiego": 8267,
      "ĠDave": 8268,
      "Ġpredict": 8269,
      "urrent": 8270,
      "olve": 8271,
      "ags": 8272,
      "Ġidentify": 8273,
      "Ġsubmarine": 8274,
      "90": 8275,
      "ĠBenn": 8276,
      "ĠHop": 8277,
      "Ġblow": 8278,
      "Ġlongest": 8279,
      "Ġdefended": 8280,
      "Ġapplications": 8281,
      "Ġpanel": 8282,
      "era": 8283,
      "Ġcup": 8284,
      "icop": 8285,
      "ĠPy": 8286,
      "Ġafterwards": 8287,
      "ĠUSS": 8288,
      "Ġsoil": 8289,
      "Ġmonument": 8290,
      "Ġmaybe": 8291,
      "ĠSarah": 8292,
      "Ġetc": 8293,
      "ĠVice": 8294,
      "ricted": 8295,
      "Ġnormally": 8296,
      "Ġneutral": 8297,
      "ĠAud": 8298,
      "ĠWhy": 8299,
      "Ġindicate": 8300,
      "Ġstyles": 8301,
      "ĠPope": 8302,
      "ĠThose": 8303,
      "Ġtempor": 8304,
      "asters": 8305,
      "ĠSee": 8306,
      "ennis": 8307,
      "Ġrefers": 8308,
      "ĠEvans": 8309,
      "Ġalter": 8310,
      "ĠLad": 8311,
      "Ġtaxes": 8312,
      "lah": 8313,
      "Ġax": 8314,
      "Ġsurve": 8315,
      "Ġlowest": 8316,
      "Ġdollar": 8317,
      "ĠJosh": 8318,
      "ĠKu": 8319,
      "Ġexecuted": 8320,
      "Ġchildhood": 8321,
      "onymous": 8322,
      "Ġgat": 8323,
      "ĠHoll": 8324,
      "ĠDor": 8325,
      "ĠLas": 8326,
      "Ġfalls": 8327,
      "Ġthrone": 8328,
      "Ġgang": 8329,
      "Ġsurf": 8330,
      "ĠStewart": 8331,
      "burn": 8332,
      "fit": 8333,
      "Ġtools": 8334,
      "Ġvictim": 8335,
      "ĠYan": 8336,
      "Ġspan": 8337,
      "Ġswitch": 8338,
      "otes": 8339,
      "Ġjunior": 8340,
      "Ġreco": 8341,
      "Ġovers": 8342,
      "Ġsecured": 8343,
      "ĠSimpson": 8344,
      "Ġcolonial": 8345,
      "ĠUk": 8346,
      "Ġquiet": 8347,
      "ĠArmen": 8348,
      "Ġparent": 8349,
      "Ġcoins": 8350,
      "enh": 8351,
      "Ġ1951": 8352,
      "Ġfitted": 8353,
      "Ġtalent": 8354,
      "ican": 8355,
      "ĠHamp": 8356,
      "Ġrising": 8357,
      "wealth": 8358,
      "Ġsuccessor": 8359,
      "Ġformerly": 8360,
      "Ġtalks": 8361,
      "Ġinstruments": 8362,
      "ĠPuerto": 8363,
      "ĠTurkish": 8364,
      "Ġarchae": 8365,
      "Ġtie": 8366,
      "Ġongoing": 8367,
      "Ġrecover": 8368,
      "Ġmart": 8369,
      "ĠSax": 8370,
      "Ġ1900": 8371,
      "Ġflank": 8372,
      "Ġincreases": 8373,
      "Ġcollaps": 8374,
      "ĠIce": 8375,
      "ĠBishop": 8376,
      "ĠMelbourne": 8377,
      "Ġlists": 8378,
      "Ġstores": 8379,
      "Ġyourself": 8380,
      "ĠRepresent": 8381,
      "Ġappropriate": 8382,
      "Ġcavalry": 8383,
      "Ġrej": 8384,
      "owed": 8385,
      "velt": 8386,
      "Ġdepicted": 8387,
      "ĠKhan": 8388,
      "imet": 8389,
      "ĠBird": 8390,
      "Ġforg": 8391,
      "Ġevil": 8392,
      "Ġconcrete": 8393,
      "ĠTH": 8394,
      "ĠWelsh": 8395,
      "ika": 8396,
      "Ġcrosses": 8397,
      "While": 8398,
      "ĠBusiness": 8399,
      "ĠMort": 8400,
      "Ġyield": 8401,
      "Ġbattleships": 8402,
      "eenth": 8403,
      "pany": 8404,
      "Ġsaved": 8405,
      "omot": 8406,
      "Ġliked": 8407,
      "Ġ140": 8408,
      "Ġprompted": 8409,
      "Ġannouncement": 8410,
      "Ġbehalf": 8411,
      "iece": 8412,
      "urd": 8413,
      "Ġsatisf": 8414,
      "Ġpartly": 8415,
      "Ġsimpl": 8416,
      "ĠDa": 8417,
      "Ġsharp": 8418,
      "asts": 8419,
      "Ġallies": 8420,
      "Ġguilty": 8421,
      "Ġwindows": 8422,
      "Ġprevented": 8423,
      "ĠLate": 8424,
      "Ġpromised": 8425,
      "Ġdisaster": 8426,
      "ĠMinistry": 8427,
      "ois": 8428,
      "rating": 8429,
      "ĠAR": 8430,
      "ĠEvent": 8431,
      "Ġunlike": 8432,
      "Ġteeth": 8433,
      "Ġcondem": 8434,
      "Ġprint": 8435,
      "Ġmovies": 8436,
      "Ġdepending": 8437,
      "Ġfixed": 8438,
      "ĠPok": 8439,
      "rous": 8440,
      "Ġmaintenance": 8441,
      "Ġcolleagues": 8442,
      "Ġwickets": 8443,
      "Le": 8444,
      "Ġere": 8445,
      "ĠAny": 8446,
      "Ġindeed": 8447,
      "Ġresidential": 8448,
      "Ġsuspended": 8449,
      "Ġalcohol": 8450,
      "Ġtoll": 8451,
      "ouri": 8452,
      "Ġbeach": 8453,
      "Ġforcing": 8454,
      "Ġovert": 8455,
      "lock": 8456,
      "inction": 8457,
      "Ġinher": 8458,
      "Ġalive": 8459,
      "ĠWard": 8460,
      "ĠMississ": 8461,
      "inter": 8462,
      "osevelt": 8463,
      "Ġmedieval": 8464,
      "Ġaffairs": 8465,
      "ailed": 8466,
      "Ġadvis": 8467,
      "Ġflew": 8468,
      "ygen": 8469,
      "aron": 8470,
      "ĠNiel": 8471,
      "Ġsubjects": 8472,
      "Ġshop": 8473,
      "Ġfeelings": 8474,
      "ĠHungarian": 8475,
      "Ġrepeatedly": 8476,
      "ĠMicrosoft": 8477,
      "Ġdiver": 8478,
      "Ġgovernments": 8479,
      "Ġcovering": 8480,
      "Ġsurvive": 8481,
      "idd": 8482,
      "Ġstem": 8483,
      "inking": 8484,
      "eland": 8485,
      "osm": 8486,
      "Ġexplan": 8487,
      "Ġdeliber": 8488,
      "Ġstarred": 8489,
      "ĠTrek": 8490,
      "Ġsubsid": 8491,
      "Ġnotably": 8492,
      "Ġempt": 8493,
      "ĠWarner": 8494,
      "Ġmagic": 8495,
      "Ġerror": 8496,
      "Ġbatting": 8497,
      "Ġdissip": 8498,
      "ĠLib": 8499,
      "ivan": 8500,
      "quir": 8501,
      "Ġabilities": 8502,
      "Ġcolony": 8503,
      "Ġdesigner": 8504,
      "ĠPhoen": 8505,
      "Ġneighbour": 8506,
      "ĠNevertheless": 8507,
      "bey": 8508,
      "Ġclosing": 8509,
      "Ġloved": 8510,
      "Ġisolated": 8511,
      "nings": 8512,
      "ĠHaving": 8513,
      "Ġintellect": 8514,
      "Ġ900": 8515,
      "Ġincred": 8516,
      "Ġsmooth": 8517,
      "Ġfewer": 8518,
      "Ġfriendly": 8519,
      "Ġquarterback": 8520,
      "ĠPakistan": 8521,
      "Ġbare": 8522,
      "ĠPA": 8523,
      "acking": 8524,
      "Ġnovels": 8525,
      "ĠSanders": 8526,
      "ĠCroatian": 8527,
      "olas": 8528,
      "ĠBan": 8529,
      "ĠBull": 8530,
      "ĠChamber": 8531,
      "Ġinternet": 8532,
      "Ġdispute": 8533,
      "Ġunsuccessful": 8534,
      "ĠMarshall": 8535,
      "ĠIns": 8536,
      "Ġintercept": 8537,
      "Ġexpert": 8538,
      "Ġdivor": 8539,
      "Ġrounds": 8540,
      "Ġrailroad": 8541,
      "lie": 8542,
      "inations": 8543,
      "idency": 8544,
      "ĠHu": 8545,
      "ĠCommander": 8546,
      "Ġlawyer": 8547,
      "Ġ83": 8548,
      "Ġsuggesting": 8549,
      "Ġsiege": 8550,
      "ĠNAS": 8551,
      "Ġformally": 8552,
      "Ġlegit": 8553,
      "ĠMalays": 8554,
      "hattan": 8555,
      "No": 8556,
      "ilst": 8557,
      "ĠHong": 8558,
      "Ġabuse": 8559,
      "Ġpotentially": 8560,
      "Ġmarketing": 8561,
      "ethe": 8562,
      "100": 8563,
      "acc": 8564,
      "Ġgap": 8565,
      "Ġaccompany": 8566,
      "Ġconversation": 8567,
      "She": 8568,
      "Ġ{": 8569,
      "Ġwaves": 8570,
      "utely": 8571,
      "ĠAdvent": 8572,
      "Ġaimed": 8573,
      "ĠMach": 8574,
      "Ġdispl": 8575,
      "Ġconfidence": 8576,
      "Ġradical": 8577,
      "Ġsecretary": 8578,
      "father": 8579,
      "uma": 8580,
      "ĠYe": 8581,
      "Ġremn": 8582,
      "Ġinfluences": 8583,
      "Ġsynthes": 8584,
      "Ġsad": 8585,
      "Ġinfrastructure": 8586,
      "ĠForces": 8587,
      "point": 8588,
      "Ġenters": 8589,
      "Ġrepair": 8590,
      "Ġpropag": 8591,
      "ĠManhattan": 8592,
      "Ġfundament": 8593,
      "ĠCold": 8594,
      "Ġwalking": 8595,
      "Ġspiritual": 8596,
      "atus": 8597,
      "Ġreun": 8598,
      "ctic": 8599,
      "Ġstrict": 8600,
      "Ġimpressed": 8601,
      "ĠRoosevelt": 8602,
      "inally": 8603,
      "Ġmeetings": 8604,
      "Ġtraveled": 8605,
      "edia": 8606,
      "ĠKnow": 8607,
      "Ġpartially": 8608,
      "Ġ08": 8609,
      "Ne": 8610,
      "Ġranks": 8611,
      "Ġillness": 8612,
      "lahoma": 8613,
      "Ġrebell": 8614,
      "Ġencounter": 8615,
      "run": 8616,
      "ÑĤ": 8617,
      "Ġinaug": 8618,
      "ĠABC": 8619,
      "Is": 8620,
      "Ġsymp": 8621,
      "Ġcriticised": 8622,
      "ĠCommonwealth": 8623,
      "onies": 8624,
      "ĠMoh": 8625,
      "ĠGuy": 8626,
      "chell": 8627,
      "low": 8628,
      "emen": 8629,
      "Ġoffense": 8630,
      "Ġfallen": 8631,
      "ĠQueens": 8632,
      "ĠCEO": 8633,
      "Ġsymptoms": 8634,
      "Ġoverwhel": 8635,
      "Ġtort": 8636,
      "Ġciting": 8637,
      "Ġarts": 8638,
      "Ġcrimes": 8639,
      "Ġcontributions": 8640,
      "Ġconspir": 8641,
      "ropolitan": 8642,
      "Ġwooden": 8643,
      "ĠPrincess": 8644,
      "isd": 8645,
      "icipal": 8646,
      "usic": 8647,
      "ĠOt": 8648,
      "Ġimperial": 8649,
      "Ġradar": 8650,
      "Ġpoliticians": 8651,
      "ĠBed": 8652,
      "ĠReport": 8653,
      "ĠPlayer": 8654,
      "âĢĶâĢĶâĢĶâĢĶâĢĶâĢĶâĢĶâĢĶ": 8655,
      "Ġray": 8656,
      "athy": 8657,
      "Ġgrav": 8658,
      "ĠBuilding": 8659,
      "Ġpremiered": 8660,
      "makers": 8661,
      "Ġbats": 8662,
      "Ġ(@": 8663,
      "abilities": 8664,
      "ĠKal": 8665,
      "Ġbridges": 8666,
      "Ġ1934": 8667,
      "Ġcontrols": 8668,
      "Ġcutting": 8669,
      "ĠSon": 8670,
      "Ġ1932": 8671,
      "Ġphoto": 8672,
      "ĠCrown": 8673,
      "Ġarrive": 8674,
      "Ġframe": 8675,
      "AM": 8676,
      "ĠHans": 8677,
      "ulous": 8678,
      "Ġownership": 8679,
      "Ġobser": 8680,
      "Ġsalt": 8681,
      "ĠWol": 8682,
      "arth": 8683,
      "Ġlegend": 8684,
      "Ġwheel": 8685,
      "Ġreconst": 8686,
      "ĠYug": 8687,
      "Ġpron": 8688,
      "amese": 8689,
      "ĠCred": 8690,
      "acon": 8691,
      "ĠRights": 8692,
      "ĠLane": 8693,
      "Ġpoetry": 8694,
      "ĠBulgar": 8695,
      "sk": 8696,
      "org": 8697,
      "Ġpace": 8698,
      "ĠSet": 8699,
      "ĠRoc": 8700,
      "ĠUSD": 8701,
      "incial": 8702,
      "attered": 8703,
      "ĠCO": 8704,
      "Ġeval": 8705,
      "Ġraid": 8706,
      "Ġdominant": 8707,
      "Ġdrums": 8708,
      "orious": 8709,
      "formula": 8710,
      "ĠMerc": 8711,
      "ĠArea": 8712,
      "Ġbases": 8713,
      "ĠMuch": 8714,
      "Ġreporting": 8715,
      "Ġreviewer": 8716,
      "ĠAM": 8717,
      "ĠHockey": 8718,
      "Ġexisted": 8719,
      "din": 8720,
      "ifer": 8721,
      "ĠStock": 8722,
      "angers": 8723,
      "Ġimprison": 8724,
      "Ġapartment": 8725,
      "Ġminimal": 8726,
      "Ġexpression": 8727,
      "ippi": 8728,
      "Ġhonest": 8729,
      "Ġdanger": 8730,
      "Ġinhabit": 8731,
      "ĠExpress": 8732,
      "unc": 8733,
      "rible": 8734,
      "Ġskill": 8735,
      "Ġvalid": 8736,
      "Ġterritories": 8737,
      "ĠCampbell": 8738,
      "Ġinstitution": 8739,
      "Ġearthqu": 8740,
      "itual": 8741,
      "ĠDisc": 8742,
      "ĠAustria": 8743,
      "Ġceleb": 8744,
      "Ġbeer": 8745,
      "ĠDur": 8746,
      "Ġunex": 8747,
      "Ġrealized": 8748,
      "ĠOklahoma": 8749,
      "Ġcircumstances": 8750,
      "arr": 8751,
      "otal": 8752,
      "ĠAnna": 8753,
      "Ġmeasured": 8754,
      "ĠSpears": 8755,
      "Ġentertainment": 8756,
      "ĠWing": 8757,
      "Ġattorney": 8758,
      "eign": 8759,
      "Ġprol": 8760,
      "roke": 8761,
      "ĠCow": 8762,
      "igs": 8763,
      "Ġacceler": 8764,
      "Ġ1926": 8765,
      "Ġdramatic": 8766,
      "Ġprepare": 8767,
      "Ġpatterns": 8768,
      "Ġwet": 8769,
      "sts": 8770,
      "ĠKings": 8771,
      "inding": 8772,
      "raction": 8773,
      "ĠPeters": 8774,
      "38": 8775,
      "ĠHorn": 8776,
      "Ġrecip": 8777,
      "Ġunderw": 8778,
      "Ġ1913": 8779,
      "Ġpredicted": 8780,
      "Ġmerely": 8781,
      "Ġgarrison": 8782,
      "Ġscenar": 8783,
      "ouver": 8784,
      "Ġhelicop": 8785,
      "Ġ1921": 8786,
      "Ġopportunities": 8787,
      "Ġphysic": 8788,
      "ĠSamuel": 8789,
      "Ġcommemor": 8790,
      "ĠMichel": 8791,
      "Ġnewspapers": 8792,
      "Ġoccasions": 8793,
      "ĠAy": 8794,
      "Ġapply": 8795,
      "ugg": 8796,
      "Ġraising": 8797,
      "Ġassists": 8798,
      "ĠChildren": 8799,
      "ĠAlbums": 8800,
      "ĠNazi": 8801,
      "Ġconvection": 8802,
      "Ġdies": 8803,
      "Ġregime": 8804,
      "Ġ176": 8805,
      "ĠYugoslav": 8806,
      "rot": 8807,
      "ĠHud": 8808,
      "ĠDigital": 8809,
      "OC": 8810,
      "ĠGab": 8811,
      "ĠKr": 8812,
      "Ġrelie": 8813,
      "ĠProte": 8814,
      "Ġ1912": 8815,
      "Ġgenetic": 8816,
      "IV": 8817,
      "how": 8818,
      "ffect": 8819,
      "ĠWarren": 8820,
      "Ġmarry": 8821,
      "Ġtreaty": 8822,
      "Ġfram": 8823,
      "ĠSnow": 8824,
      "Ġ1922": 8825,
      "Ġbattleship": 8826,
      "Ġdogs": 8827,
      "Ġfatal": 8828,
      "Ġ06": 8829,
      "Ġ1911": 8830,
      "Ġcreator": 8831,
      "Ġpictures": 8832,
      "fle": 8833,
      "mi": 8834,
      "ugby": 8835,
      "ieties": 8836,
      "ĠBlood": 8837,
      "borough": 8838,
      "Ġdefinition": 8839,
      "Ġvessel": 8840,
      "ĠFriend": 8841,
      "ĠNat": 8842,
      "Ġorb": 8843,
      "ortunately": 8844,
      "Ġdisplayed": 8845,
      "ĠCroatia": 8846,
      "ĠNon": 8847,
      "ĠHeavy": 8848,
      "ĠMario": 8849,
      "bean": 8850,
      "ĠNielsen": 8851,
      "bra": 8852,
      "icts": 8853,
      "Ġcoff": 8854,
      "Ġchallenges": 8855,
      "ĠCateg": 8856,
      "ĠGray": 8857,
      "ikely": 8858,
      "ĠStevens": 8859,
      "Ġpaying": 8860,
      "ĠPortland": 8861,
      "ĠMontreal": 8862,
      "Ġessentially": 8863,
      "Ġliberal": 8864,
      "Ġwedding": 8865,
      "Ġlect": 8866,
      "Ġrecordings": 8867,
      "Ġhypot": 8868,
      "Ġoxygen": 8869,
      "rator": 8870,
      "urer": 8871,
      "ĠVis": 8872,
      "away": 8873,
      "ĠSign": 8874,
      "stic": 8875,
      "Ġmargin": 8876,
      "Ġprofile": 8877,
      "forced": 8878,
      "ĠPhoenix": 8879,
      "Ġfill": 8880,
      "Ġ1929": 8881,
      "Ġpowered": 8882,
      "ĠBelgium": 8883,
      "Ġpy": 8884,
      "Ġthor": 8885,
      "ĠSoon": 8886,
      "ĠDod": 8887,
      "Ġ1931": 8888,
      "Ġstatements": 8889,
      "Ġhappens": 8890,
      "Ġvillages": 8891,
      "Ġdrove": 8892,
      "ĠServices": 8893,
      "ĠForeign": 8894,
      "Ġphilosophy": 8895,
      "ĠPrim": 8896,
      "Ġcorporate": 8897,
      "ĠConnect": 8898,
      "Ġrub": 8899,
      "Ġoutput": 8900,
      "Ġagencies": 8901,
      "Ġpersonally": 8902,
      "Ġhelps": 8903,
      "ĠChristopher": 8904,
      "ĠBenj": 8905,
      "Ġtribute": 8906,
      "ĠGiants": 8907,
      "Ã§": 8908,
      "Ġforth": 8909,
      "Ġexposure": 8910,
      "Ġdifficulties": 8911,
      "Ġblocks": 8912,
      "Ġagricultural": 8913,
      "Ġenforcement": 8914,
      "Ġsubmitted": 8915,
      "Ġ09": 8916,
      "Ġbombard": 8917,
      "Ġappointment": 8918,
      "?\"": 8919,
      "avor": 8920,
      "Ġsignal": 8921,
      "Ġencountered": 8922,
      "ĠCharlie": 8923,
      "37": 8924,
      "EN": 8925,
      "Ġì": 8926,
      "Ġreven": 8927,
      "Ġracing": 8928,
      "Ġengage": 8929,
      "ĠSteven": 8930,
      "Ġacted": 8931,
      "ĠWriting": 8932,
      "Ġupgraded": 8933,
      "hu": 8934,
      "Ġwaste": 8935,
      "Ġ81": 8936,
      "Ġ170": 8937,
      "Ġobst": 8938,
      "Ġlimits": 8939,
      "Ġranking": 8940,
      "ĠAtlanta": 8941,
      "36": 8942,
      "GB": 8943,
      "Ġthrew": 8944,
      "ĠChel": 8945,
      "Ġdemands": 8946,
      "Ġsky": 8947,
      "ancouver": 8948,
      "Ġmining": 8949,
      "Ġmayor": 8950,
      "Ġoblig": 8951,
      "Ġargues": 8952,
      "Ġemployment": 8953,
      "Ġdiameter": 8954,
      "ĠTennes": 8955,
      "ĠShel": 8956,
      "Ġhandle": 8957,
      "Ġelder": 8958,
      "ĠAnglo": 8959,
      "Ġliquid": 8960,
      "ĠSony": 8961,
      "ante": 8962,
      "anches": 8963,
      "ĠMississippi": 8964,
      "Ġtough": 8965,
      "Ġhidden": 8966,
      "ĠLam": 8967,
      "ĠEc": 8968,
      "Ġsurgery": 8969,
      "LC": 8970,
      "mo": 8971,
      "sky": 8972,
      "ĠGaga": 8973,
      "net": 8974,
      "ĠSuch": 8975,
      "Ġflights": 8976,
      "Ġ1927": 8977,
      "ĠMissouri": 8978,
      "Ġfairly": 8979,
      "ĠNapole": 8980,
      "ĠPhilippines": 8981,
      "uscript": 8982,
      "ĠRAAF": 8983,
      "Ġchurches": 8984,
      "Ġcompens": 8985,
      "ĠFran": 8986,
      "Ġfunny": 8987,
      "Ġcampaigns": 8988,
      "Ġhorror": 8989,
      "aver": 8990,
      "Ġsending": 8991,
      "Ġexclud": 8992,
      "Ġ91": 8993,
      "Ġdestro": 8994,
      "ĠCole": 8995,
      "Ġconvoy": 8996,
      "ĠLaure": 8997,
      "rehens": 8998,
      "ended": 8999,
      "rapy": 9000,
      "ĠEgyptian": 9001,
      "ĠAdministration": 9002,
      "eu": 9003,
      "Ġhorn": 9004,
      "ĠBros": 9005,
      "Ġpoison": 9006,
      "Ġvoting": 9007,
      "ji": 9008,
      "Ġexit": 9009,
      "elli": 9010,
      "Ġtag": 9011,
      "Ġgard": 9012,
      "ĠBanks": 9013,
      "ullivan": 9014,
      "ĠHarv": 9015,
      "ĠSym": 9016,
      "Now": 9017,
      "ĠDest": 9018,
      "Ġthereafter": 9019,
      "Ġinsisted": 9020,
      "Ġlayer": 9021,
      "pha": 9022,
      "Ġ71": 9023,
      "Ġfinale": 9024,
      "Ġstronger": 9025,
      "Ġdeparted": 9026,
      "Ġaggressive": 9027,
      "iti": 9028,
      "ĠMaj": 9029,
      "Ġlegacy": 9030,
      "Ġprofit": 9031,
      "Ġtub": 9032,
      "Ġunderground": 9033,
      "Ġsatellite": 9034,
      "ĠWhere": 9035,
      "Ġbacking": 9036,
      "Ġcredits": 9037,
      "itated": 9038,
      "ĠThor": 9039,
      "Ġ82": 9040,
      "Ġguide": 9041,
      "Ġmarks": 9042,
      "Ġelabor": 9043,
      "Ġreveal": 9044,
      "Ġspotted": 9045,
      "ĠGraham": 9046,
      "ĠTennessee": 9047,
      "Ġrecre": 9048,
      "olds": 9049,
      "itarian": 9050,
      "ĠCategory": 9051,
      "ĠRap": 9052,
      "Ġassum": 9053,
      "Ġbacked": 9054,
      "Ġsurge": 9055,
      "opping": 9056,
      "ĠAT": 9057,
      "ĠGarden": 9058,
      "Ġresidence": 9059,
      "Ġreviewers": 9060,
      "Ġamongst": 9061,
      "Ġsurprised": 9062,
      "Ġdemonstrated": 9063,
      "Ġhouseholds": 9064,
      "ĠFrederick": 9065,
      "Ġwore": 9066,
      "ĠTrust": 9067,
      "ĠErn": 9068,
      "Ġcryst": 9069,
      "Ġreluct": 9070,
      "Ġinstru": 9071,
      "Ġtwin": 9072,
      "Ġ360": 9073,
      "Ġcollaboration": 9074,
      "ĠVietnamese": 9075,
      "Ġturb": 9076,
      "ĠIan": 9077,
      "ĠCarib": 9078,
      "Ġcircuit": 9079,
      "New": 9080,
      "oned": 9081,
      "rix": 9082,
      "Ġrand": 9083,
      "Ġspecimens": 9084,
      "Ġaudiences": 9085,
      "Ġbombers": 9086,
      "ĠLawrence": 9087,
      "Ġdefinitely": 9088,
      "47": 9089,
      "nik": 9090,
      "ancell": 9091,
      "ĠCountry": 9092,
      "Ġexplosion": 9093,
      "Ġgrey": 9094,
      "Ġerr": 9095,
      "Ġoccupation": 9096,
      "mont": 9097,
      "ori": 9098,
      "Ġridge": 9099,
      "Ġorbit": 9100,
      "ques": 9101,
      "ĠVinc": 9102,
      "Ġthanks": 9103,
      "Ġendors": 9104,
      "Ġ1924": 9105,
      "Ġprotests": 9106,
      "Ġbadly": 9107,
      "Ġbehaviour": 9108,
      "Ġmamm": 9109,
      "ĠProm": 9110,
      "Ġbypass": 9111,
      "ework": 9112,
      "ĠVI": 9113,
      "Ġwithdrew": 9114,
      "cribed": 9115,
      "ivery": 9116,
      "Ġlock": 9117,
      "ĠRAF": 9118,
      "ĠFa": 9119,
      "Ġshield": 9120,
      "apolis": 9121,
      "Ġfeud": 9122,
      "Ġinfl": 9123,
      "ĠAustralians": 9124,
      "Ġvisiting": 9125,
      "Ġ1928": 9126,
      "Ġarriving": 9127,
      "ĠBenjamin": 9128,
      "Ġhopes": 9129,
      "Ġsurvivors": 9130,
      "Ġhook": 9131,
      "Ġrevers": 9132,
      "ĠHind": 9133,
      "Ġinvent": 9134,
      "Ġforests": 9135,
      "Ġelectricity": 9136,
      "ĠRomney": 9137,
      "Ġbonus": 9138,
      "ĠVancouver": 9139,
      "Ġobtain": 9140,
      "Ġscholar": 9141,
      "Ġexercise": 9142,
      "ĠPitts": 9143,
      "Ġcod": 9144,
      "Ġfishing": 9145,
      "Ġdict": 9146,
      "Ġreward": 9147,
      "ĠBureau": 9148,
      "ĠHorse": 9149,
      "ĠDom": 9150,
      "Ġtrend": 9151,
      "Ġcruisers": 9152,
      "Ġbulk": 9153,
      "Ġtunnel": 9154,
      "ĠCob": 9155,
      "tery": 9156,
      "Ġcomponent": 9157,
      "Ġdeeply": 9158,
      "ĠJimmy": 9159,
      "Ġclot": 9160,
      "atherine": 9161,
      "Ġconfident": 9162,
      "Ġcivilian": 9163,
      "Ġrequirements": 9164,
      "tario": 9165,
      "Ġunlikely": 9166,
      "ĠJonathan": 9167,
      "part": 9168,
      "ĠBox": 9169,
      "Ġkiss": 9170,
      "Ġemperor": 9171,
      "Ġfactory": 9172,
      "Ġcommunications": 9173,
      "mat": 9174,
      "Ġsample": 9175,
      "ĠTun": 9176,
      "Ġlie": 9177,
      "irts": 9178,
      "Ġ1923": 9179,
      "Ġ1925": 9180,
      "ĠDragon": 9181,
      "adi": 9182,
      "Ġlocomot": 9183,
      "fish": 9184,
      "Ġtor": 9185,
      "Ġfault": 9186,
      "ĠBuck": 9187,
      "Ġaspect": 9188,
      "Ġrecon": 9189,
      "ĠTreaty": 9190,
      "born": 9191,
      "gate": 9192,
      "opes": 9193,
      "Ġfuneral": 9194,
      "ĠLouisiana": 9195,
      "Ġadjacent": 9196,
      "Ġpaintings": 9197,
      "Ġbrick": 9198,
      "ĠRace": 9199,
      "allas": 9200,
      "Ġconfirm": 9201,
      "uns": 9202,
      "ĠNative": 9203,
      "munition": 9204,
      "Ġefficient": 9205,
      "Ġrandom": 9206,
      "ĠCost": 9207,
      "olen": 9208,
      "Ġuncom": 9209,
      "ographical": 9210,
      "apping": 9211,
      "39": 9212,
      "ĠGrey": 9213,
      "agen": 9214,
      "akh": 9215,
      "á»": 9216,
      "ifies": 9217,
      "Ġclar": 9218,
      "pert": 9219,
      "bb": 9220,
      "oga": 9221,
      "Ġinstrumental": 9222,
      "ĠYanke": 9223,
      "ses": 9224,
      "Ġlisting": 9225,
      "Ġsav": 9226,
      "Ġpossess": 9227,
      "odore": 9228,
      "Ġcomprom": 9229,
      "Ġmanage": 9230,
      "Ġassisted": 9231,
      "Ġoperational": 9232,
      "ĠChampionships": 9233,
      "ĠTed": 9234,
      "umble": 9235,
      "Ġaffair": 9236,
      "Ġwider": 9237,
      "ĠMitchell": 9238,
      "ĠLennon": 9239,
      "ĠHindu": 9240,
      "car": 9241,
      "Ġtenth": 9242,
      "Ġchest": 9243,
      "ĠNik": 9244,
      "Ġje": 9245,
      "Ġroots": 9246,
      "Ġpromise": 9247,
      "Ġprofession": 9248,
      "ĠProgram": 9249,
      "agger": 9250,
      "axy": 9251,
      "Ġdevast": 9252,
      "Ġloop": 9253,
      "Ġdynasty": 9254,
      "Ġunderstood": 9255,
      "Ġwire": 9256,
      "Ġthir": 9257,
      "Ġranging": 9258,
      "Äį": 9259,
      "ÑĢ": 9260,
      "ĠTel": 9261,
      "Ġsuitable": 9262,
      "ibilities": 9263,
      "amps": 9264,
      "Ġpreparation": 9265,
      "Ġeliminated": 9266,
      "Ġ07": 9267,
      "Ġrestricted": 9268,
      "Ġvalley": 9269,
      "ĠLegacy": 9270,
      "OL": 9271,
      "PS": 9272,
      "Ġgarden": 9273,
      "Ġseed": 9274,
      "ova": 9275,
      "Ġinvestigate": 9276,
      "Ġpursue": 9277,
      "hard": 9278,
      "atics": 9279,
      "Ġalliance": 9280,
[...]
